// Auto-generated from transient_cnn_int8.tflite
// Model size: 12,288 bytes (12.0 KB)
// Input:  64x64x1 INT8 (4096 bytes)
// Output: 4 classes [transient, starfield, bright_source, earth_limb]
//
// DO NOT EDIT — regenerate with: python3 export_to_c.py

#ifndef TRANSIENT_MODEL_DATA_H
#define TRANSIENT_MODEL_DATA_H

#ifdef __cplusplus
extern "C" {
#endif

// Number of bytes in the model
const unsigned int g_model_data_len = 12288;

// Model data aligned for efficient memory access
const unsigned char g_model_data[] __attribute__((aligned(4))) = {
    0x1c, 0x00, 0x00, 0x00, 0x54, 0x46, 0x4c, 0x33, 0x14, 0x00, 0x20, 0x00,
    0x1c, 0x00, 0x18, 0x00, 0x14, 0x00, 0x10, 0x00, 0x0c, 0x00, 0x00, 0x00,
    0x08, 0x00, 0x04, 0x00, 0x14, 0x00, 0x00, 0x00, 0x1c, 0x00, 0x00, 0x00,
    0x94, 0x00, 0x00, 0x00, 0xec, 0x00, 0x00, 0x00, 0x74, 0x0d, 0x00, 0x00,
    0x84, 0x0d, 0x00, 0x00, 0x58, 0x2f, 0x00, 0x00, 0x03, 0x00, 0x00, 0x00,
    0x01, 0x00, 0x00, 0x00, 0x10, 0x00, 0x00, 0x00, 0x00, 0x00, 0x0a, 0x00,
    0x10, 0x00, 0x0c, 0x00, 0x08, 0x00, 0x04, 0x00, 0x0a, 0x00, 0x00, 0x00,
    0x0c, 0x00, 0x00, 0x00, 0x1c, 0x00, 0x00, 0x00, 0x3c, 0x00, 0x00, 0x00,
    0x0f, 0x00, 0x00, 0x00, 0x73, 0x65, 0x72, 0x76, 0x69, 0x6e, 0x67, 0x5f,
    0x64, 0x65, 0x66, 0x61, 0x75, 0x6c, 0x74, 0x00, 0x01, 0x00, 0x00, 0x00,
    0x04, 0x00, 0x00, 0x00, 0x94, 0xff, 0xff, 0xff, 0x15, 0x00, 0x00, 0x00,
    0x04, 0x00, 0x00, 0x00, 0x08, 0x00, 0x00, 0x00, 0x6f, 0x75, 0x74, 0x70,
    0x75, 0x74, 0x5f, 0x30, 0x00, 0x00, 0x00, 0x00, 0x01, 0x00, 0x00, 0x00,
    0x04, 0x00, 0x00, 0x00, 0x72, 0xf2, 0xff, 0xff, 0x04, 0x00, 0x00, 0x00,
    0x0b, 0x00, 0x00, 0x00, 0x69, 0x6e, 0x70, 0x75, 0x74, 0x5f, 0x6c, 0x61,
    0x79, 0x65, 0x72, 0x00, 0x02, 0x00, 0x00, 0x00, 0x34, 0x00, 0x00, 0x00,
    0x04, 0x00, 0x00, 0x00, 0xdc, 0xff, 0xff, 0xff, 0x18, 0x00, 0x00, 0x00,
    0x04, 0x00, 0x00, 0x00, 0x13, 0x00, 0x00, 0x00, 0x43, 0x4f, 0x4e, 0x56,
    0x45, 0x52, 0x53, 0x49, 0x4f, 0x4e, 0x5f, 0x4d, 0x45, 0x54, 0x41, 0x44,
    0x41, 0x54, 0x41, 0x00, 0x08, 0x00, 0x0c, 0x00, 0x08, 0x00, 0x04, 0x00,
    0x08, 0x00, 0x00, 0x00, 0x17, 0x00, 0x00, 0x00, 0x04, 0x00, 0x00, 0x00,
    0x13, 0x00, 0x00, 0x00, 0x6d, 0x69, 0x6e, 0x5f, 0x72, 0x75, 0x6e, 0x74,
    0x69, 0x6d, 0x65, 0x5f, 0x76, 0x65, 0x72, 0x73, 0x69, 0x6f, 0x6e, 0x00,
    0x19, 0x00, 0x00, 0x00, 0x84, 0x0c, 0x00, 0x00, 0x7c, 0x0c, 0x00, 0x00,
    0x64, 0x0c, 0x00, 0x00, 0x44, 0x0c, 0x00, 0x00, 0xb4, 0x0b, 0x00, 0x00,
    0x24, 0x0b, 0x00, 0x00, 0x14, 0x07, 0x00, 0x00, 0x84, 0x06, 0x00, 0x00,
    0x54, 0x05, 0x00, 0x00, 0xc4, 0x04, 0x00, 0x00, 0xb4, 0x02, 0x00, 0x00,
    0x64, 0x02, 0x00, 0x00, 0xc4, 0x01, 0x00, 0x00, 0x74, 0x01, 0x00, 0x00,
    0xd4, 0x00, 0x00, 0x00, 0xcc, 0x00, 0x00, 0x00, 0xc4, 0x00, 0x00, 0x00,
    0xbc, 0x00, 0x00, 0x00, 0xb4, 0x00, 0x00, 0x00, 0xac, 0x00, 0x00, 0x00,
    0xa4, 0x00, 0x00, 0x00, 0x9c, 0x00, 0x00, 0x00, 0x94, 0x00, 0x00, 0x00,
    0x74, 0x00, 0x00, 0x00, 0x04, 0x00, 0x00, 0x00, 0x4e, 0xf3, 0xff, 0xff,
    0x04, 0x00, 0x00, 0x00, 0x60, 0x00, 0x00, 0x00, 0x0c, 0x00, 0x00, 0x00,
    0x08, 0x00, 0x0e, 0x00, 0x08, 0x00, 0x04, 0x00, 0x08, 0x00, 0x00, 0x00,
    0x10, 0x00, 0x00, 0x00, 0x28, 0x00, 0x00, 0x00, 0x00, 0x00, 0x06, 0x00,
    0x08, 0x00, 0x04, 0x00, 0x06, 0x00, 0x00, 0x00, 0x04, 0x00, 0x00, 0x00,
    0x01, 0x00, 0x00, 0x00, 0xeb, 0x03, 0x00, 0x00, 0x0c, 0x00, 0x18, 0x00,
    0x14, 0x00, 0x10, 0x00, 0x0c, 0x00, 0x04, 0x00, 0x0c, 0x00, 0x00, 0x00,
    0xb9, 0xf9, 0xb6, 0x36, 0x57, 0x74, 0x9f, 0xd9, 0x02, 0x00, 0x00, 0x00,
    0x02, 0x00, 0x00, 0x00, 0x04, 0x00, 0x00, 0x00, 0x06, 0x00, 0x00, 0x00,
    0x32, 0x2e, 0x32, 0x31, 0x2e, 0x30, 0x00, 0x00, 0xba, 0xf3, 0xff, 0xff,
    0x04, 0x00, 0x00, 0x00, 0x10, 0x00, 0x00, 0x00, 0x31, 0x2e, 0x31, 0x34,
    0x2e, 0x30, 0x00, 0x00, 0x00, 0x00, 0x00, 0x00, 0x00, 0x00, 0x00, 0x00,
    0x80, 0xd3, 0xff, 0xff, 0x84, 0xd3, 0xff, 0xff, 0x88, 0xd3, 0xff, 0xff,
    0x8c, 0xd3, 0xff, 0xff, 0x90, 0xd3, 0xff, 0xff, 0x94, 0xd3, 0xff, 0xff,
    0x98, 0xd3, 0xff, 0xff, 0x9c, 0xd3, 0xff, 0xff, 0xf6, 0xf3, 0xff, 0xff,
    0x04, 0x00, 0x00, 0x00, 0x90, 0x00, 0x00, 0x00, 0x2e, 0x22, 0x24, 0x48,
    0x7f, 0x6b, 0x3c, 0x37, 0x38, 0x25, 0x33, 0x7f, 0x1c, 0x2a, 0x2d, 0xd7,
    0x0a, 0x05, 0x2d, 0x4c, 0x67, 0x2a, 0x69, 0x7f, 0xe2, 0xef, 0x34, 0x35,
    0x2b, 0x2f, 0x3e, 0x40, 0x6c, 0x2a, 0x31, 0x7f, 0x1d, 0xdd, 0xa2, 0x11,
    0xd2, 0x81, 0x06, 0xfb, 0xfc, 0x89, 0x81, 0x0e, 0xea, 0xd9, 0x03, 0x08,
    0x1e, 0x19, 0x46, 0x17, 0x21, 0x7f, 0x42, 0x43, 0x67, 0x21, 0x46, 0x7f,
    0x4a, 0x7e, 0x60, 0x50, 0x62, 0x6e, 0x56, 0x30, 0x67, 0x5e, 0x54, 0x29,
    0x35, 0x7f, 0xd8, 0x04, 0x34, 0x5b, 0xce, 0x76, 0x7f, 0x9f, 0xf5, 0xe3,
    0x52, 0x7d, 0x37, 0x33, 0x28, 0x6f, 0x58, 0x37, 0x7f, 0x5f, 0x23, 0x7f,
    0x46, 0xcb, 0xcb, 0x59, 0x7c, 0xb2, 0x0d, 0x6a, 0x7f, 0x56, 0x16, 0x68,
    0x22, 0x01, 0x46, 0x51, 0x3a, 0xf9, 0x1f, 0x3a, 0x10, 0x35, 0x60, 0x10,
    0x30, 0x7f, 0x76, 0x7f, 0x36, 0x42, 0x57, 0x45, 0x43, 0x29, 0x23, 0x21,
    0x15, 0x03, 0x19, 0x04, 0xfe, 0x70, 0x7f, 0x44, 0x92, 0xf4, 0xff, 0xff,
    0x04, 0x00, 0x00, 0x00, 0x40, 0x00, 0x00, 0x00, 0xdd, 0xb4, 0xff, 0xff,
    0x68, 0xce, 0xff, 0xff, 0x5c, 0xb5, 0xff, 0xff, 0x3d, 0xb6, 0xff, 0xff,
    0x18, 0x2d, 0x00, 0x00, 0xdb, 0x1b, 0x00, 0x00, 0x7b, 0xb6, 0xff, 0xff,
    0xd7, 0xca, 0xff, 0xff, 0xaa, 0xc1, 0xff, 0xff, 0x90, 0xcb, 0xff, 0xff,
    0x4b, 0xe0, 0xff, 0xff, 0xbb, 0xd0, 0xff, 0xff, 0x58, 0xaa, 0xff, 0xff,
    0x04, 0xc2, 0xff, 0xff, 0xa4, 0xc2, 0xff, 0xff, 0x71, 0xd0, 0xff, 0xff,
    0xde, 0xf4, 0xff, 0xff, 0x04, 0x00, 0x00, 0x00, 0x90, 0x00, 0x00, 0x00,
    0xfa, 0xee, 0x02, 0x42, 0xba, 0x92, 0x9e, 0x59, 0xda, 0xd4, 0x43, 0x4c,
    0x4b, 0xd1, 0xbf, 0x25, 0xea, 0xcc, 0x28, 0xc4, 0xae, 0x9e, 0x20, 0xc3,
    0x28, 0xcd, 0x4d, 0x46, 0x44, 0x81, 0x81, 0x1c, 0x1e, 0xfc, 0x7f, 0xc3,
    0xce, 0xbb, 0x10, 0x83, 0x62, 0xae, 0x27, 0x35, 0x1f, 0x9e, 0xd4, 0x0c,
    0x81, 0xeb, 0xff, 0xf3, 0x93, 0x82, 0xd9, 0xf6, 0x81, 0xdd, 0x26, 0x31,
    0x44, 0x88, 0x1d, 0xd7, 0xe8, 0xa2, 0x19, 0x15, 0x81, 0x9e, 0x46, 0x72,
    0xbd, 0x98, 0xe9, 0x61, 0xfd, 0xae, 0x46, 0x12, 0xf4, 0xb2, 0x6d, 0x2f,
    0x86, 0x81, 0x1e, 0x81, 0x4f, 0x81, 0x1a, 0x5d, 0x0a, 0xed, 0x3e, 0x81,
    0xc9, 0xec, 0xa7, 0x81, 0xc7, 0xdf, 0x0d, 0x2a, 0xeb, 0xdc, 0x9e, 0x3e,
    0x5c, 0xd8, 0xd1, 0xf0, 0xa6, 0xde, 0x0f, 0x4e, 0xac, 0x8c, 0x0f, 0x3f,
    0xf7, 0x98, 0x81, 0x5a, 0x7f, 0xfa, 0x54, 0x8f, 0xbb, 0x81, 0xf2, 0xda,
    0xb4, 0x90, 0x81, 0xb9, 0x0b, 0xb9, 0x08, 0x7f, 0x52, 0x27, 0x11, 0xed,
    0x7a, 0xf5, 0xff, 0xff, 0x04, 0x00, 0x00, 0x00, 0x40, 0x00, 0x00, 0x00,
    0x7b, 0x15, 0x00, 0x00, 0xa7, 0x1c, 0x00, 0x00, 0xae, 0xf2, 0xff, 0xff,
    0xca, 0x00, 0x00, 0x00, 0x0a, 0x30, 0x00, 0x00, 0xa7, 0x1f, 0x00, 0x00,
    0xa2, 0x05, 0x00, 0x00, 0x9c, 0xfe, 0xff, 0xff, 0xcb, 0x03, 0x00, 0x00,
    0x76, 0x27, 0x00, 0x00, 0x77, 0xfc, 0xff, 0xff, 0x7b, 0xe7, 0xff, 0xff,
    0xc8, 0xe3, 0xff, 0xff, 0xd9, 0x23, 0x00, 0x00, 0x6f, 0xff, 0xff, 0xff,
    0x58, 0x07, 0x00, 0x00, 0xc6, 0xf5, 0xff, 0xff, 0x04, 0x00, 0x00, 0x00,
    0x00, 0x02, 0x00, 0x00, 0x05, 0x13, 0xb7, 0x10, 0x38, 0x10, 0xb8, 0x1c,
    0xe3, 0x81, 0x57, 0x1d, 0xe0, 0x81, 0xc6, 0x0c, 0xad, 0x81, 0xcc, 0x4e,
    0x03, 0xed, 0x28, 0x42, 0xeb, 0x3d, 0x36, 0xda, 0x8c, 0xe4, 0x22, 0x13,
    0xd9, 0x1d, 0x58, 0xde, 0x0c, 0x28, 0xc4, 0xdb, 0xa0, 0x30, 0x19, 0xfb,
    0xf0, 0xfb, 0x1f, 0x7f, 0x4d, 0x0f, 0xc9, 0xae, 0x7f, 0x08, 0xc1, 0x0f,
    0x47, 0xd8, 0x50, 0xd2, 0x3c, 0xd5, 0x0f, 0x92, 0xd5, 0xf2, 0x81, 0x04,
    0xf1, 0xfe, 0xfe, 0xe9, 0xc8, 0x14, 0x0e, 0xf8, 0xbe, 0x0a, 0xfb, 0x06,
    0x1a, 0x6c, 0x09, 0xc7, 0x30, 0x14, 0x3d, 0x8c, 0xc7, 0x16, 0xa0, 0xf6,
    0xb6, 0x7f, 0x15, 0x54, 0x31, 0xee, 0x1a, 0xe7, 0x41, 0xf1, 0x81, 0xc4,
    0x0d, 0xff, 0xc8, 0x3a, 0x0b, 0x11, 0xc1, 0xfb, 0x63, 0x67, 0x04, 0xb8,
    0x7f, 0x1b, 0xde, 0x09, 0x42, 0x04, 0x2e, 0xca, 0x30, 0x31, 0x3d, 0xbb,
    0xfe, 0x5a, 0x00, 0xd0, 0x4e, 0x7f, 0x19, 0x3b, 0x06, 0xea, 0xfc, 0xcc,
    0x3a, 0x0e, 0xc4, 0x92, 0xd7, 0x08, 0xfb, 0x3e, 0xc0, 0xb5, 0xc5, 0x03,
    0xd7, 0x7f, 0xc6, 0x4a, 0x02, 0x01, 0x00, 0x0e, 0x74, 0x26, 0xcc, 0xcf,
    0x0d, 0x01, 0x2e, 0xd1, 0x05, 0x1d, 0x83, 0xbf, 0x1c, 0x7f, 0xed, 0xfe,
    0xeb, 0x01, 0xf7, 0x72, 0x01, 0x81, 0x31, 0x19, 0x34, 0xf8, 0x58, 0x3c,
    0xde, 0x94, 0x19, 0x37, 0xd9, 0x66, 0xed, 0xd7, 0x5f, 0x7f, 0xc7, 0xe2,
    0xe9, 0xf7, 0x3f, 0xc8, 0x3b, 0x6a, 0x34, 0xeb, 0xe3, 0xee, 0xd7, 0xf5,
    0xe5, 0xce, 0xfe, 0x1b, 0x0b, 0x45, 0x35, 0x81, 0xa1, 0xc2, 0x36, 0x38,
    0x33, 0x13, 0x28, 0x9d, 0x7f, 0x4e, 0xab, 0x2a, 0xf5, 0x3d, 0xde, 0x1b,
    0x13, 0xd8, 0xf8, 0xd2, 0x04, 0x02, 0xc7, 0x03, 0xef, 0x0b, 0x28, 0xde,
    0x08, 0x63, 0x12, 0x81, 0xc7, 0xbf, 0x10, 0xe8, 0xb2, 0xe0, 0xff, 0x0a,
    0x81, 0x99, 0x02, 0x13, 0x31, 0xf3, 0x31, 0x0a, 0x3b, 0x4b, 0x1a, 0xff,
    0x1f, 0x56, 0x15, 0x09, 0xe3, 0x23, 0x3a, 0xfa, 0xde, 0xd1, 0x81, 0xe1,
    0xc4, 0x23, 0xaf, 0x21, 0xd8, 0xd8, 0xd3, 0xe3, 0x7f, 0x47, 0xd4, 0x31,
    0x1a, 0xec, 0x06, 0xae, 0xd2, 0xa5, 0x05, 0xec, 0x8c, 0x81, 0xf0, 0x0b,
    0x4a, 0xe2, 0x86, 0xfb, 0xd5, 0x50, 0xec, 0x04, 0x83, 0xb3, 0x6b, 0xd5,
    0x7b, 0xe7, 0x3e, 0x8e, 0x33, 0x51, 0x8b, 0x9a, 0xd0, 0x0d, 0xaf, 0x47,
    0x5b, 0x00, 0xea, 0x81, 0xe7, 0x45, 0x9e, 0xcf, 0x8a, 0x1f, 0xed, 0x37,
    0x0e, 0x2c, 0x81, 0x07, 0xca, 0xd4, 0xe8, 0x08, 0x6a, 0x52, 0x8d, 0x99,
    0x27, 0x0f, 0xaf, 0x1e, 0xde, 0x7b, 0x81, 0xd0, 0x7a, 0x04, 0x02, 0x3f,
    0xd8, 0x81, 0xd9, 0x63, 0xbf, 0xbd, 0x01, 0x3c, 0xf6, 0x0e, 0x3d, 0x55,
    0xb2, 0xa5, 0x03, 0x3e, 0xd7, 0x60, 0xca, 0x07, 0xca, 0x19, 0x43, 0x81,
    0x3a, 0xe1, 0xdf, 0xa7, 0x25, 0x44, 0xb5, 0x2a, 0xcb, 0xab, 0xce, 0x59,
    0x19, 0xe7, 0xbe, 0x16, 0xce, 0x02, 0x23, 0xf6, 0xb4, 0x7f, 0x78, 0xf1,
    0x23, 0xea, 0x36, 0xc4, 0x76, 0x7f, 0x85, 0x3e, 0x8a, 0x35, 0xdf, 0xe9,
    0xfe, 0xe7, 0xde, 0x08, 0x03, 0x29, 0x01, 0x8b, 0x7f, 0x5f, 0xce, 0x2b,
    0x1e, 0x00, 0x10, 0xe8, 0x1a, 0x2d, 0x0c, 0x82, 0x5e, 0x6f, 0x90, 0x04,
    0xc1, 0x09, 0x4d, 0x07, 0xf3, 0x0f, 0x25, 0x8d, 0x96, 0xf6, 0x81, 0x06,
    0x49, 0x2d, 0xce, 0xf6, 0xf1, 0x0f, 0x26, 0x0b, 0xbe, 0xca, 0x8d, 0x0e,
    0xfe, 0x42, 0x81, 0x21, 0x16, 0xe7, 0x0a, 0xdf, 0x64, 0xfb, 0x81, 0x20,
    0x09, 0x1d, 0x27, 0x0f, 0xf6, 0xf3, 0x0e, 0xb4, 0x72, 0xec, 0x7f, 0x25,
    0xdc, 0x0c, 0x76, 0xd3, 0x53, 0xef, 0x13, 0xb0, 0xd4, 0xc8, 0xc7, 0x15,
    0xd2, 0xf7, 0xff, 0xff, 0x04, 0x00, 0x00, 0x00, 0x80, 0x00, 0x00, 0x00,
    0x7e, 0x0c, 0x00, 0x00, 0x26, 0x0c, 0x00, 0x00, 0x0c, 0xfa, 0xff, 0xff,
    0xe7, 0xf6, 0xff, 0xff, 0x04, 0x07, 0x00, 0x00, 0x47, 0xf1, 0xff, 0xff,
    0x1b, 0xfc, 0xff, 0xff, 0x76, 0xe4, 0xff, 0xff, 0x40, 0xf2, 0xff, 0xff,
    0x1a, 0x0a, 0x00, 0x00, 0x39, 0xea, 0xff, 0xff, 0x41, 0x02, 0x00, 0x00,
    0x2b, 0xef, 0xff, 0xff, 0x9a, 0x0a, 0x00, 0x00, 0x7f, 0xf1, 0xff, 0xff,
    0xc6, 0x01, 0x00, 0x00, 0x45, 0xfd, 0xff, 0xff, 0xdc, 0xff, 0xff, 0xff,
    0x8c, 0x02, 0x00, 0x00, 0xe8, 0x17, 0x00, 0x00, 0x9c, 0xf1, 0xff, 0xff,
    0x9e, 0x10, 0x00, 0x00, 0xc2, 0xf8, 0xff, 0xff, 0x95, 0x11, 0x00, 0x00,
    0xc8, 0xf9, 0xff, 0xff, 0x4a, 0x06, 0x00, 0x00, 0x86, 0xf3, 0xff, 0xff,
    0x47, 0xee, 0xff, 0xff, 0x03, 0x07, 0x00, 0x00, 0x47, 0x05, 0x00, 0x00,
    0x47, 0xff, 0xff, 0xff, 0xc6, 0xfe, 0xff, 0xff, 0x5e, 0xf8, 0xff, 0xff,
    0x04, 0x00, 0x00, 0x00, 0x20, 0x01, 0x00, 0x00, 0x16, 0x7f, 0xfa, 0x6f,
    0x7f, 0x45, 0x7f, 0x19, 0x81, 0xbf, 0xbd, 0xdb, 0x92, 0x81, 0x45, 0x73,
    0x5f, 0x61, 0x7f, 0xd2, 0x1a, 0x3b, 0x87, 0x56, 0x67, 0xe6, 0x7f, 0x45,
    0xa1, 0x46, 0xec, 0x81, 0xc0, 0x6b, 0x87, 0xed, 0x17, 0x7f, 0xb8, 0x24,
    0xb7, 0xd2, 0x4f, 0xc5, 0x2b, 0xa3, 0xf6, 0x69, 0x7f, 0x72, 0xec, 0xae,
    0x21, 0x02, 0x88, 0x47, 0x7f, 0x81, 0x2f, 0x37, 0x96, 0x4b, 0xf7, 0xda,
    0xd6, 0x77, 0xda, 0x40, 0x28, 0x7f, 0xc2, 0x2e, 0xc7, 0x94, 0x14, 0x0d,
    0x4d, 0xde, 0x95, 0x68, 0x56, 0x57, 0x87, 0xdc, 0x81, 0xb9, 0x02, 0x57,
    0x0d, 0x96, 0xea, 0xfd, 0xac, 0x27, 0x81, 0xde, 0x12, 0x6e, 0x4d, 0x05,
    0x03, 0x3e, 0x14, 0x20, 0x45, 0xe8, 0x01, 0xa5, 0xa5, 0xda, 0x1d, 0x58,
    0x57, 0x7f, 0xd9, 0xb1, 0x15, 0x2b, 0xb3, 0x57, 0x21, 0xa3, 0x1f, 0x33,
    0xca, 0x73, 0xca, 0xbc, 0x99, 0x7f, 0x16, 0xf4, 0x24, 0x0d, 0xa7, 0x0d,
    0x4a, 0x28, 0x6f, 0xe4, 0x37, 0xd1, 0x2d, 0x24, 0x7e, 0x49, 0x0d, 0xa5,
    0x24, 0x02, 0x81, 0x67, 0x22, 0x9e, 0x04, 0x13, 0xae, 0x48, 0x59, 0xb4,
    0x81, 0x79, 0x2a, 0x24, 0xfe, 0x4a, 0xee, 0x2d, 0x1a, 0xcf, 0x7f, 0x28,
    0x41, 0xb4, 0x0a, 0x59, 0x5f, 0x70, 0x22, 0x81, 0x12, 0xe8, 0xa9, 0x7f,
    0xfb, 0xb8, 0xc9, 0xf3, 0x9f, 0x7f, 0xd7, 0xc5, 0x8a, 0x44, 0xf6, 0x18,
    0x30, 0x7e, 0x13, 0x4d, 0x75, 0xd5, 0x0b, 0x81, 0x81, 0xc3, 0x81, 0x7f,
    0x3a, 0x43, 0x92, 0xcc, 0x96, 0x9e, 0x18, 0x64, 0xfe, 0xc2, 0xf7, 0xfd,
    0xfd, 0x53, 0x96, 0xe7, 0xb7, 0x71, 0x81, 0x4e, 0x43, 0x4e, 0xed, 0x7f,
    0x53, 0xba, 0x6a, 0xe3, 0xf2, 0x9c, 0xdb, 0x7e, 0x54, 0x52, 0x0f, 0x93,
    0xf3, 0xf1, 0xd4, 0x7b, 0x06, 0xcd, 0xc5, 0xef, 0xbd, 0x4c, 0x0f, 0xb6,
    0xdd, 0x48, 0x0e, 0x7f, 0x65, 0x3a, 0xb6, 0x4d, 0x3d, 0x81, 0x1c, 0x21,
    0x29, 0x8d, 0xdb, 0x49, 0x4d, 0x35, 0x5e, 0xd6, 0x3e, 0x7f, 0xa6, 0x1f,
    0xec, 0xef, 0x8d, 0x81, 0x81, 0x40, 0x09, 0xbf, 0x8a, 0xf9, 0xff, 0xff,
    0x04, 0x00, 0x00, 0x00, 0x80, 0x00, 0x00, 0x00, 0x5b, 0x03, 0x00, 0x00,
    0xdf, 0xf8, 0xff, 0xff, 0xa2, 0x01, 0x00, 0x00, 0x55, 0xf9, 0xff, 0xff,
    0x4a, 0xfc, 0xff, 0xff, 0x41, 0xe2, 0xff, 0xff, 0x38, 0x01, 0x00, 0x00,
    0xca, 0xf8, 0xff, 0xff, 0x2c, 0xf6, 0xff, 0xff, 0xe6, 0x12, 0x00, 0x00,
    0x11, 0xff, 0xff, 0xff, 0x71, 0x01, 0x00, 0x00, 0xa3, 0xfd, 0xff, 0xff,
    0x22, 0x09, 0x00, 0x00, 0x64, 0x04, 0x00, 0x00, 0xc2, 0xf7, 0xff, 0xff,
    0xcc, 0xfd, 0xff, 0xff, 0x54, 0xdf, 0xff, 0xff, 0x79, 0xfe, 0xff, 0xff,
    0x6b, 0x10, 0x00, 0x00, 0xed, 0x00, 0x00, 0x00, 0xa3, 0xfe, 0xff, 0xff,
    0x60, 0x15, 0x00, 0x00, 0xc4, 0xf9, 0xff, 0xff, 0xa0, 0xf9, 0xff, 0xff,
    0x63, 0x08, 0x00, 0x00, 0x17, 0x01, 0x00, 0x00, 0xfc, 0xfb, 0xff, 0xff,
    0x0d, 0x14, 0x00, 0x00, 0xfb, 0xe1, 0xff, 0xff, 0x9b, 0x03, 0x00, 0x00,
    0xb2, 0x10, 0x00, 0x00, 0x16, 0xfa, 0xff, 0xff, 0x04, 0x00, 0x00, 0x00,
    0x00, 0x04, 0x00, 0x00, 0x38, 0xf0, 0xf0, 0xe1, 0x0b, 0x02, 0xdd, 0xcc,
    0x27, 0xf1, 0xf8, 0xfe, 0x22, 0xf2, 0xb0, 0xf5, 0x1a, 0x24, 0x38, 0x44,
    0x7f, 0x24, 0x2e, 0xe7, 0x1a, 0x2f, 0xf6, 0xfb, 0x02, 0xa1, 0xef, 0x29,
    0xb6, 0xdc, 0x04, 0x0a, 0xcb, 0x2d, 0x20, 0xe5, 0xff, 0xf5, 0xa8, 0xe7,
    0xf7, 0xe2, 0xcb, 0xef, 0x5c, 0x5a, 0xf7, 0x31, 0xeb, 0xd1, 0x21, 0x0c,
    0x2d, 0x15, 0xff, 0x0c, 0x0d, 0x7f, 0xe9, 0x0e, 0xb3, 0xfb, 0x39, 0xef,
    0x04, 0xfa, 0x50, 0xc5, 0xd2, 0xfd, 0xad, 0x81, 0xc3, 0x21, 0xd0, 0x40,
    0xe5, 0xc3, 0xdb, 0xb8, 0xc4, 0xc8, 0xdb, 0x1a, 0xcb, 0x15, 0x3b, 0xc5,
    0x7e, 0x13, 0xd3, 0xa6, 0x9a, 0xcc, 0x13, 0x14, 0x25, 0x7f, 0x0a, 0xc1,
    0xe7, 0x02, 0x99, 0xf1, 0xf2, 0x32, 0xa0, 0xf2, 0x65, 0xd2, 0xef, 0x5a,
    0xf4, 0xe3, 0x0b, 0x0d, 0xcb, 0xa3, 0x1e, 0xfc, 0x13, 0x15, 0xbd, 0xf1,
    0xef, 0x3a, 0x02, 0x1a, 0xed, 0xe8, 0xbc, 0x63, 0x2b, 0xdc, 0x26, 0x19,
    0x4b, 0x81, 0xce, 0xce, 0xf7, 0x0c, 0xe0, 0xe3, 0x06, 0xef, 0xd6, 0xc0,
    0x11, 0x32, 0x5b, 0x7f, 0xd2, 0xfb, 0xdb, 0xef, 0x87, 0xd3, 0xff, 0xf4,
    0xee, 0x68, 0xf2, 0x08, 0x14, 0x2f, 0xb9, 0xe3, 0x05, 0xc5, 0xc3, 0xf4,
    0x57, 0x7f, 0x02, 0x4d, 0xfd, 0xd6, 0x26, 0x23, 0x36, 0xf6, 0x24, 0xe3,
    0xd1, 0x5e, 0x04, 0x0c, 0x38, 0x0e, 0xf6, 0x20, 0x05, 0xdf, 0xa3, 0x1e,
    0x7f, 0xd4, 0x02, 0x22, 0x72, 0x8d, 0x00, 0xfc, 0xfe, 0xd5, 0x2e, 0x1e,
    0x7b, 0x19, 0x2e, 0xd5, 0x23, 0x26, 0x17, 0x29, 0xa9, 0x20, 0xb7, 0x3b,
    0x57, 0x25, 0xed, 0xef, 0xd7, 0xf7, 0xbf, 0x13, 0x5d, 0xd2, 0x16, 0x11,
    0x4a, 0xb6, 0x0d, 0x1d, 0xff, 0xcf, 0x53, 0x1a, 0x7f, 0x40, 0x4e, 0xb6,
    0x44, 0xfc, 0xfa, 0x20, 0xc8, 0xfe, 0xe7, 0x47, 0x03, 0x38, 0x0e, 0x2e,
    0xee, 0xe6, 0xa9, 0x55, 0x30, 0xea, 0x0d, 0x0e, 0x43, 0x88, 0xd9, 0xf0,
    0xf8, 0x03, 0xe3, 0xf6, 0x01, 0xf3, 0xdb, 0xc2, 0x09, 0x23, 0x49, 0x7f,
    0xd2, 0x03, 0xcb, 0xf8, 0x22, 0xfa, 0xf2, 0xe1, 0xfa, 0x05, 0xd4, 0xfe,
    0x31, 0xed, 0x03, 0x0e, 0x2c, 0xfb, 0xcf, 0xf0, 0x0c, 0x09, 0x31, 0x17,
    0x7f, 0x1c, 0x27, 0xf0, 0x20, 0x30, 0xf1, 0x17, 0xc0, 0xca, 0x1c, 0x27,
    0xed, 0x15, 0x2b, 0x1e, 0x08, 0xf3, 0xe9, 0x1e, 0xeb, 0xe4, 0xfb, 0x1b,
    0xf4, 0xcb, 0xad, 0xf2, 0xf8, 0xec, 0xbf, 0xf7, 0xd3, 0xea, 0xd7, 0xea,
    0xf9, 0x33, 0x7f, 0x64, 0xea, 0x0a, 0xfb, 0xe2, 0xe4, 0x0c, 0x3f, 0x0b,
    0xf3, 0xe0, 0x30, 0x0b, 0xd2, 0xf1, 0x04, 0xf6, 0xc8, 0x0a, 0x81, 0xf9,
    0xfe, 0xf0, 0xb9, 0xf2, 0x88, 0xd9, 0xd1, 0xf7, 0x0c, 0x18, 0x71, 0x49,
    0xff, 0x29, 0x21, 0xdc, 0xfd, 0xb8, 0xd0, 0xb2, 0x06, 0x29, 0xd2, 0xe2,
    0x18, 0xdd, 0x85, 0xe0, 0x35, 0x43, 0xb1, 0xdf, 0x30, 0x39, 0x4d, 0x61,
    0x7f, 0x1b, 0x40, 0xfe, 0x47, 0x36, 0xfe, 0xe4, 0xf5, 0xb3, 0x11, 0x79,
    0xe9, 0x05, 0x37, 0xf6, 0x0d, 0xf4, 0x30, 0x04, 0xdf, 0xfb, 0xfc, 0xf5,
    0xc5, 0xf6, 0xae, 0xf0, 0xfe, 0x0d, 0xd5, 0xe0, 0x81, 0xe8, 0xdc, 0xf2,
    0xf6, 0x2f, 0x41, 0x2b, 0x22, 0x00, 0x24, 0xde, 0x18, 0x0d, 0x29, 0x07,
    0xff, 0xf2, 0xf0, 0x12, 0xeb, 0xee, 0x0a, 0xf6, 0xdb, 0xd6, 0x9f, 0xe4,
    0x04, 0x14, 0xbc, 0xc3, 0xb9, 0xe4, 0xd8, 0xe6, 0xf3, 0x60, 0x7f, 0x5f,
    0xf6, 0xff, 0x17, 0xdb, 0x10, 0x12, 0xf5, 0xba, 0x35, 0xc0, 0x1a, 0xf4,
    0x03, 0xa7, 0xfd, 0xa8, 0xe8, 0x06, 0xc9, 0x7f, 0xd3, 0xd3, 0x7c, 0xd0,
    0x62, 0x39, 0x6e, 0xde, 0x0f, 0xd0, 0xd6, 0xfa, 0x38, 0xde, 0x09, 0x51,
    0xf0, 0x21, 0x0f, 0x08, 0xe9, 0xdb, 0xd1, 0x6f, 0xfa, 0xef, 0x19, 0x1e,
    0x31, 0x9c, 0xa4, 0xe7, 0xf7, 0xec, 0xd0, 0xea, 0xee, 0xe5, 0xe1, 0xdf,
    0x16, 0x1a, 0x7f, 0x72, 0xca, 0x2e, 0xe3, 0x05, 0x13, 0x0f, 0xf1, 0x09,
    0xf3, 0xf5, 0xd0, 0xe8, 0x2c, 0xcf, 0xfc, 0x19, 0x37, 0xc4, 0xd8, 0x11,
    0x0a, 0xff, 0x33, 0x32, 0x7f, 0x23, 0x2c, 0xd5, 0x0d, 0x0f, 0xf1, 0x26,
    0x07, 0xe3, 0xdd, 0x36, 0x06, 0xee, 0x50, 0xfd, 0x60, 0xe7, 0x7f, 0xde,
    0xc4, 0x0d, 0x98, 0x9c, 0x99, 0x17, 0xf3, 0x7b, 0xb1, 0xaa, 0xd4, 0x90,
    0xd8, 0x01, 0x3a, 0x30, 0xf4, 0xa3, 0x03, 0xe5, 0x5c, 0x2b, 0x4f, 0x9e,
    0x2b, 0x2d, 0xe6, 0x2c, 0xdf, 0xd6, 0xaa, 0x47, 0x55, 0xdd, 0x27, 0x14,
    0x62, 0x81, 0xe7, 0xf9, 0xf9, 0x03, 0x09, 0xe9, 0x2b, 0x07, 0xf8, 0xc4,
    0x2f, 0x1b, 0x54, 0x2d, 0xd8, 0x08, 0xc7, 0x1d, 0x81, 0xd8, 0x3a, 0x1c,
    0x15, 0x57, 0x31, 0xf9, 0xe3, 0x11, 0xab, 0xd5, 0xe8, 0xee, 0xb8, 0xf3,
    0x42, 0x21, 0xe2, 0x25, 0xa2, 0xdc, 0xfc, 0x16, 0x07, 0x0f, 0x39, 0x0e,
    0x0c, 0x43, 0xca, 0x15, 0xdd, 0x48, 0x0b, 0x05, 0x08, 0xbf, 0x16, 0x14,
    0xe5, 0xdf, 0x0c, 0xcc, 0xe2, 0xea, 0x00, 0x7f, 0xec, 0xba, 0xdd, 0xae,
    0xbf, 0xfd, 0xf0, 0xc8, 0x02, 0xf7, 0x1f, 0x28, 0x2f, 0xd7, 0x44, 0xd8,
    0x02, 0x6a, 0x4a, 0xec, 0x4e, 0xc8, 0x64, 0xd4, 0xc5, 0xea, 0x81, 0xa1,
    0x92, 0x33, 0xaf, 0x65, 0xd8, 0x04, 0xc8, 0x81, 0x8e, 0xc6, 0xdd, 0xce,
    0xf6, 0x18, 0x29, 0xfe, 0x64, 0xd0, 0xd5, 0x8d, 0xdc, 0x1a, 0x07, 0x0e,
    0x42, 0xd5, 0x3a, 0xdf, 0xe4, 0xf4, 0xf1, 0xba, 0xcf, 0x12, 0xec, 0x7f,
    0xd8, 0xc8, 0xf6, 0xd5, 0xfe, 0xf4, 0x07, 0xfd, 0xf0, 0xd3, 0xef, 0xea,
    0x47, 0xdd, 0x07, 0xde, 0x1f, 0xd4, 0xe5, 0xcc, 0xa8, 0x3b, 0xcd, 0xfd,
    0x17, 0xe3, 0x84, 0xdc, 0x24, 0xd7, 0xbf, 0xb9, 0x1c, 0xe2, 0x38, 0x68,
    0x7f, 0x21, 0x1a, 0xf5, 0xfa, 0x4c, 0xd0, 0x2d, 0x0f, 0xdb, 0x23, 0x3e,
    0xe6, 0x8e, 0xc0, 0xb2, 0xcb, 0x24, 0xcc, 0xc5, 0x0b, 0xf3, 0x81, 0xe0,
    0x0d, 0x6d, 0xd2, 0xc3, 0x3b, 0x24, 0x1c, 0x70, 0x28, 0xee, 0x23, 0x38,
    0xc0, 0x62, 0xe1, 0xe8, 0xee, 0xb3, 0x36, 0x4a, 0xf7, 0x11, 0xf6, 0xd0,
    0xff, 0x01, 0x21, 0xd9, 0x00, 0xaa, 0x0d, 0xa3, 0xe9, 0x36, 0xdb, 0x63,
    0xe2, 0xa9, 0x62, 0x21, 0x59, 0x36, 0x7f, 0xcf, 0xb3, 0xcc, 0xde, 0xe0,
    0x25, 0xd2, 0xbd, 0x58, 0x3c, 0x21, 0xf9, 0xd6, 0xca, 0xeb, 0xa5, 0x67,
    0x6e, 0xe0, 0xfe, 0x28, 0x55, 0x81, 0x23, 0x10, 0xf4, 0xd8, 0x46, 0x2f,
    0x6d, 0x28, 0x2c, 0xc9, 0x1a, 0xff, 0xe9, 0x4d, 0xb3, 0x1c, 0xcc, 0x4f,
    0xe1, 0x1f, 0xf7, 0xea, 0x56, 0xce, 0x16, 0xb9, 0x07, 0xa0, 0x31, 0xce,
    0xeb, 0x0b, 0xaf, 0x6f, 0xd3, 0xa6, 0x7f, 0x0f, 0x68, 0x34, 0x77, 0xcc,
    0xfc, 0xbb, 0xcc, 0x00, 0x3d, 0xf6, 0xf9, 0x5c, 0x20, 0x0b, 0xfb, 0xef,
    0xe2, 0x06, 0xc5, 0x25, 0x3f, 0xcb, 0x0a, 0x13, 0x54, 0xc1, 0x0e, 0x12,
    0x02, 0xf3, 0x45, 0x28, 0x7f, 0x2b, 0x33, 0xdf, 0x1d, 0x17, 0xd6, 0x4e,
    0xbe, 0xd0, 0xab, 0x41, 0xd8, 0xcc, 0x36, 0xc6, 0xd5, 0x3e, 0x3b, 0x0f,
    0xdc, 0x22, 0xe2, 0xd2, 0xe3, 0x28, 0xd0, 0x33, 0x32, 0xf8, 0xe4, 0xf6,
    0x81, 0xd3, 0xd8, 0x28, 0x07, 0xf6, 0x2e, 0x0b, 0x21, 0x19, 0xee, 0xf0,
    0x0e, 0x26, 0x2a, 0x17, 0x29, 0xbc, 0x6a, 0xde, 0xca, 0xfa, 0x81, 0xb3,
    0x9b, 0x4b, 0xf9, 0x45, 0x88, 0xf9, 0xda, 0xce, 0xf4, 0xef, 0x42, 0x21,
    0xc8, 0xa2, 0xf5, 0xcf, 0x1c, 0x16, 0x62, 0x82, 0x22, 0xfe, 0xff, 0xff,
    0x04, 0x00, 0x00, 0x00, 0x80, 0x00, 0x00, 0x00, 0x95, 0xfe, 0xff, 0xff,
    0x45, 0xfc, 0xff, 0xff, 0xbd, 0x0b, 0x00, 0x00, 0xce, 0x03, 0x00, 0x00,
    0x62, 0x04, 0x00, 0x00, 0x04, 0xf8, 0xff, 0xff, 0x27, 0xfa, 0xff, 0xff,
    0x04, 0xf7, 0xff, 0xff, 0xec, 0x02, 0x00, 0x00, 0x03, 0xfd, 0xff, 0xff,
    0x63, 0x04, 0x00, 0x00, 0xbc, 0x05, 0x00, 0x00, 0x8b, 0xfc, 0xff, 0xff,
    0xb4, 0x05, 0x00, 0x00, 0xe2, 0x05, 0x00, 0x00, 0x63, 0x02, 0x00, 0x00,
    0x75, 0x03, 0x00, 0x00, 0x09, 0xfc, 0xff, 0xff, 0x13, 0x07, 0x00, 0x00,
    0x5b, 0xff, 0xff, 0xff, 0x6b, 0xff, 0xff, 0xff, 0xe9, 0x07, 0x00, 0x00,
    0x79, 0x11, 0x00, 0x00, 0x19, 0x06, 0x00, 0x00, 0xbd, 0x00, 0x00, 0x00,
    0x2e, 0x03, 0x00, 0x00, 0xc3, 0x00, 0x00, 0x00, 0xae, 0xf7, 0xff, 0xff,
    0xaa, 0x00, 0x00, 0x00, 0x4c, 0xfa, 0xff, 0xff, 0x97, 0x01, 0x00, 0x00,
    0xc4, 0x08, 0x00, 0x00, 0xae, 0xfe, 0xff, 0xff, 0x04, 0x00, 0x00, 0x00,
    0x80, 0x00, 0x00, 0x00, 0x2a, 0x26, 0xc5, 0x39, 0xb4, 0x2e, 0xe3, 0xbd,
    0x9f, 0x30, 0xb5, 0xb9, 0x3c, 0xbf, 0xcf, 0xb5, 0xca, 0xf7, 0xb4, 0xc0,
    0x31, 0x81, 0x90, 0x87, 0x2f, 0x2b, 0xc6, 0xc8, 0xa8, 0xde, 0x39, 0xb0,
    0xfa, 0xf4, 0x36, 0x06, 0x85, 0xf5, 0x8e, 0xd9, 0x88, 0xe8, 0xab, 0xc2,
    0xef, 0xc5, 0xa8, 0x3f, 0x81, 0xc6, 0x27, 0xa2, 0xde, 0x23, 0x30, 0x0d,
    0xef, 0x00, 0x36, 0xa9, 0x3c, 0xa3, 0xf7, 0x2c, 0x37, 0xd6, 0xa3, 0xb2,
    0x35, 0xed, 0x7a, 0x7f, 0x38, 0x6a, 0xfd, 0xd4, 0x1f, 0xb0, 0xf7, 0x36,
    0x17, 0x7d, 0xc2, 0x51, 0xce, 0x14, 0xce, 0xc5, 0x29, 0xef, 0x0b, 0x73,
    0x39, 0x66, 0xb2, 0xd9, 0x81, 0xe7, 0x27, 0xea, 0x64, 0xef, 0x08, 0xb4,
    0x60, 0xae, 0x74, 0x75, 0xa2, 0x5a, 0x7d, 0xca, 0x70, 0xab, 0x05, 0x36,
    0x22, 0x4b, 0x4a, 0xd6, 0xb9, 0x9b, 0x9d, 0xe4, 0xb2, 0xa4, 0x49, 0xfc,
    0x3a, 0xff, 0xff, 0xff, 0x04, 0x00, 0x00, 0x00, 0x10, 0x00, 0x00, 0x00,
    0xb8, 0x0c, 0x00, 0x00, 0x2c, 0x05, 0x00, 0x00, 0x34, 0xf3, 0xff, 0xff,
    0xe7, 0xf3, 0xff, 0xff, 0x56, 0xff, 0xff, 0xff, 0x04, 0x00, 0x00, 0x00,
    0x08, 0x00, 0x00, 0x00, 0x01, 0x00, 0x00, 0x00, 0x02, 0x00, 0x00, 0x00,
    0x14, 0xdf, 0xff, 0xff, 0x18, 0xdf, 0xff, 0xff, 0x0f, 0x00, 0x00, 0x00,
    0x4d, 0x4c, 0x49, 0x52, 0x20, 0x43, 0x6f, 0x6e, 0x76, 0x65, 0x72, 0x74,
    0x65, 0x64, 0x2e, 0x00, 0x01, 0x00, 0x00, 0x00, 0x14, 0x00, 0x00, 0x00,
    0x00, 0x00, 0x0e, 0x00, 0x18, 0x00, 0x14, 0x00, 0x10, 0x00, 0x0c, 0x00,
    0x08, 0x00, 0x04, 0x00, 0x0e, 0x00, 0x00, 0x00, 0x14, 0x00, 0x00, 0x00,
    0x1c, 0x00, 0x00, 0x00, 0x60, 0x02, 0x00, 0x00, 0x64, 0x02, 0x00, 0x00,
    0x68, 0x02, 0x00, 0x00, 0x04, 0x00, 0x00, 0x00, 0x6d, 0x61, 0x69, 0x6e,
    0x00, 0x00, 0x00, 0x00, 0x08, 0x00, 0x00, 0x00, 0xfc, 0x01, 0x00, 0x00,
    0x94, 0x01, 0x00, 0x00, 0x44, 0x01, 0x00, 0x00, 0xfc, 0x00, 0x00, 0x00,
    0xac, 0x00, 0x00, 0x00, 0x78, 0x00, 0x00, 0x00, 0x40, 0x00, 0x00, 0x00,
    0x04, 0x00, 0x00, 0x00, 0x96, 0xfe, 0xff, 0xff, 0x1c, 0x00, 0x00, 0x00,
    0x00, 0x00, 0x00, 0x09, 0x1c, 0x00, 0x00, 0x00, 0x20, 0x00, 0x00, 0x00,
    0x04, 0x00, 0x00, 0x00, 0x00, 0x00, 0x06, 0x00, 0x08, 0x00, 0x04, 0x00,
    0x06, 0x00, 0x00, 0x00, 0x00, 0x00, 0x80, 0x3f, 0x01, 0x00, 0x00, 0x00,
    0x15, 0x00, 0x00, 0x00, 0x01, 0x00, 0x00, 0x00, 0x14, 0x00, 0x00, 0x00,
    0x5e, 0xff, 0xff, 0xff, 0x14, 0x00, 0x00, 0x00, 0x00, 0x00, 0x00, 0x08,
    0x10, 0x00, 0x00, 0x00, 0x14, 0x00, 0x00, 0x00, 0x03, 0x00, 0x00, 0x00,
    0xe0, 0xdf, 0xff, 0xff, 0x01, 0x00, 0x00, 0x00, 0x14, 0x00, 0x00, 0x00,
    0x03, 0x00, 0x00, 0x00, 0x13, 0x00, 0x00, 0x00, 0x03, 0x00, 0x00, 0x00,
    0x02, 0x00, 0x00, 0x00, 0x92, 0xff, 0xff, 0xff, 0x14, 0x00, 0x00, 0x00,
    0x00, 0x00, 0x00, 0x1b, 0x10, 0x00, 0x00, 0x00, 0x14, 0x00, 0x00, 0x00,
    0x02, 0x00, 0x00, 0x00, 0x14, 0xe0, 0xff, 0xff, 0x01, 0x00, 0x00, 0x00,
    0x13, 0x00, 0x00, 0x00, 0x02, 0x00, 0x00, 0x00, 0x12, 0x00, 0x00, 0x00,
    0x01, 0x00, 0x00, 0x00, 0xce, 0xfe, 0xff, 0xff, 0x10, 0x00, 0x00, 0x00,
    0x00, 0x00, 0x00, 0x01, 0x18, 0x00, 0x00, 0x00, 0x1c, 0x00, 0x00, 0x00,
    0xc0, 0xfe, 0xff, 0xff, 0x00, 0x00, 0x00, 0x01, 0x01, 0x00, 0x00, 0x00,
    0x01, 0x00, 0x00, 0x00, 0x01, 0x00, 0x00, 0x00, 0x12, 0x00, 0x00, 0x00,
    0x03, 0x00, 0x00, 0x00, 0x11, 0x00, 0x00, 0x00, 0x05, 0x00, 0x00, 0x00,
    0x04, 0x00, 0x00, 0x00, 0x00, 0x00, 0x0e, 0x00, 0x18, 0x00, 0x14, 0x00,
    0x10, 0x00, 0x0c, 0x00, 0x0b, 0x00, 0x04, 0x00, 0x0e, 0x00, 0x00, 0x00,
    0x14, 0x00, 0x00, 0x00, 0x00, 0x00, 0x00, 0x02, 0x20, 0x00, 0x00, 0x00,
    0x24, 0x00, 0x00, 0x00, 0x01, 0x00, 0x00, 0x00, 0x6e, 0xff, 0xff, 0xff,
    0x00, 0x00, 0x00, 0x01, 0x01, 0x00, 0x00, 0x00, 0x02, 0x00, 0x00, 0x00,
    0x02, 0x00, 0x00, 0x00, 0x01, 0x00, 0x00, 0x00, 0x11, 0x00, 0x00, 0x00,
    0x03, 0x00, 0x00, 0x00, 0x10, 0x00, 0x00, 0x00, 0x07, 0x00, 0x00, 0x00,
    0x06, 0x00, 0x00, 0x00, 0x5e, 0xff, 0xff, 0xff, 0x10, 0x00, 0x00, 0x00,
    0x00, 0x00, 0x00, 0x01, 0x18, 0x00, 0x00, 0x00, 0x1c, 0x00, 0x00, 0x00,
    0x50, 0xff, 0xff, 0xff, 0x00, 0x00, 0x00, 0x01, 0x01, 0x00, 0x00, 0x00,
    0x01, 0x00, 0x00, 0x00, 0x01, 0x00, 0x00, 0x00, 0x10, 0x00, 0x00, 0x00,
    0x03, 0x00, 0x00, 0x00, 0x0f, 0x00, 0x00, 0x00, 0x09, 0x00, 0x00, 0x00,
    0x08, 0x00, 0x00, 0x00, 0x00, 0x00, 0x0e, 0x00, 0x1a, 0x00, 0x14, 0x00,
    0x10, 0x00, 0x0c, 0x00, 0x0b, 0x00, 0x04, 0x00, 0x0e, 0x00, 0x00, 0x00,
    0x24, 0x00, 0x00, 0x00, 0x00, 0x00, 0x00, 0x02, 0x30, 0x00, 0x00, 0x00,
    0x34, 0x00, 0x00, 0x00, 0x01, 0x00, 0x00, 0x00, 0x00, 0x00, 0x0e, 0x00,
    0x14, 0x00, 0x00, 0x00, 0x10, 0x00, 0x0c, 0x00, 0x08, 0x00, 0x07, 0x00,
    0x0e, 0x00, 0x00, 0x00, 0x00, 0x00, 0x00, 0x01, 0x01, 0x00, 0x00, 0x00,
    0x02, 0x00, 0x00, 0x00, 0x02, 0x00, 0x00, 0x00, 0x01, 0x00, 0x00, 0x00,
    0x0f, 0x00, 0x00, 0x00, 0x03, 0x00, 0x00, 0x00, 0x0e, 0x00, 0x00, 0x00,
    0x0b, 0x00, 0x00, 0x00, 0x0a, 0x00, 0x00, 0x00, 0x00, 0x00, 0x0e, 0x00,
    0x14, 0x00, 0x00, 0x00, 0x10, 0x00, 0x0c, 0x00, 0x0b, 0x00, 0x04, 0x00,
    0x0e, 0x00, 0x00, 0x00, 0x1c, 0x00, 0x00, 0x00, 0x00, 0x00, 0x00, 0x01,
    0x24, 0x00, 0x00, 0x00, 0x28, 0x00, 0x00, 0x00, 0x0c, 0x00, 0x10, 0x00,
    0x00, 0x00, 0x0c, 0x00, 0x08, 0x00, 0x07, 0x00, 0x0c, 0x00, 0x00, 0x00,
    0x00, 0x00, 0x00, 0x01, 0x02, 0x00, 0x00, 0x00, 0x02, 0x00, 0x00, 0x00,
    0x01, 0x00, 0x00, 0x00, 0x0e, 0x00, 0x00, 0x00, 0x03, 0x00, 0x00, 0x00,
    0x00, 0x00, 0x00, 0x00, 0x0d, 0x00, 0x00, 0x00, 0x0c, 0x00, 0x00, 0x00,
    0x01, 0x00, 0x00, 0x00, 0x15, 0x00, 0x00, 0x00, 0x01, 0x00, 0x00, 0x00,
    0x00, 0x00, 0x00, 0x00, 0x16, 0x00, 0x00, 0x00, 0xa4, 0x1e, 0x00, 0x00,
    0x18, 0x1e, 0x00, 0x00, 0x70, 0x1d, 0x00, 0x00, 0xdc, 0x1c, 0x00, 0x00,
    0x70, 0x1a, 0x00, 0x00, 0x7c, 0x18, 0x00, 0x00, 0xa0, 0x15, 0x00, 0x00,
    0x24, 0x13, 0x00, 0x00, 0xa0, 0x10, 0x00, 0x00, 0xac, 0x0e, 0x00, 0x00,
    0x90, 0x0c, 0x00, 0x00, 0xe8, 0x0a, 0x00, 0x00, 0x48, 0x09, 0x00, 0x00,
    0x14, 0x08, 0x00, 0x00, 0x00, 0x07, 0x00, 0x00, 0x74, 0x05, 0x00, 0x00,
    0x58, 0x04, 0x00, 0x00, 0xcc, 0x02, 0x00, 0x00, 0xb0, 0x01, 0x00, 0x00,
    0x1c, 0x01, 0x00, 0x00, 0x80, 0x00, 0x00, 0x00, 0x04, 0x00, 0x00, 0x00,
    0xca, 0xe1, 0xff, 0xff, 0x00, 0x00, 0x00, 0x01, 0x18, 0x00, 0x00, 0x00,
    0x20, 0x00, 0x00, 0x00, 0x3c, 0x00, 0x00, 0x00, 0x16, 0x00, 0x00, 0x00,
    0x00, 0x00, 0x00, 0x09, 0x50, 0x00, 0x00, 0x00, 0x02, 0x00, 0x00, 0x00,
    0xff, 0xff, 0xff, 0xff, 0x04, 0x00, 0x00, 0x00, 0xac, 0xe1, 0xff, 0xff,
    0x08, 0x00, 0x00, 0x00, 0x10, 0x00, 0x00, 0x00, 0x01, 0x00, 0x00, 0x00,
    0x80, 0xff, 0xff, 0xff, 0xff, 0xff, 0xff, 0xff, 0x01, 0x00, 0x00, 0x00,
    0x00, 0x00, 0x80, 0x3b, 0x1b, 0x00, 0x00, 0x00, 0x53, 0x74, 0x61, 0x74,
    0x65, 0x66, 0x75, 0x6c, 0x50, 0x61, 0x72, 0x74, 0x69, 0x74, 0x69, 0x6f,
    0x6e, 0x65, 0x64, 0x43, 0x61, 0x6c, 0x6c, 0x5f, 0x31, 0x3a, 0x30, 0x00,
    0x02, 0x00, 0x00, 0x00, 0x01, 0x00, 0x00, 0x00, 0x04, 0x00, 0x00, 0x00,
    0x42, 0xe2, 0xff, 0xff, 0x00, 0x00, 0x00, 0x01, 0x18, 0x00, 0x00, 0x00,
    0x20, 0x00, 0x00, 0x00, 0x3c, 0x00, 0x00, 0x00, 0x15, 0x00, 0x00, 0x00,
    0x00, 0x00, 0x00, 0x09, 0x70, 0x00, 0x00, 0x00, 0x02, 0x00, 0x00, 0x00,
    0xff, 0xff, 0xff, 0xff, 0x04, 0x00, 0x00, 0x00, 0x24, 0xe2, 0xff, 0xff,
    0x08, 0x00, 0x00, 0x00, 0x10, 0x00, 0x00, 0x00, 0x01, 0x00, 0x00, 0x00,
    0x20, 0x00, 0x00, 0x00, 0x00, 0x00, 0x00, 0x00, 0x01, 0x00, 0x00, 0x00,
    0x76, 0xb8, 0x20, 0x3e, 0x38, 0x00, 0x00, 0x00, 0x73, 0x65, 0x71, 0x75,
    0x65, 0x6e, 0x74, 0x69, 0x61, 0x6c, 0x5f, 0x31, 0x2f, 0x64, 0x65, 0x6e,
    0x73, 0x65, 0x5f, 0x31, 0x2f, 0x4d, 0x61, 0x74, 0x4d, 0x75, 0x6c, 0x3b,
    0x73, 0x65, 0x71, 0x75, 0x65, 0x6e, 0x74, 0x69, 0x61, 0x6c, 0x5f, 0x31,
    0x2f, 0x64, 0x65, 0x6e, 0x73, 0x65, 0x5f, 0x31, 0x2f, 0x42, 0x69, 0x61,
    0x73, 0x41, 0x64, 0x64, 0x00, 0x00, 0x00, 0x00, 0x02, 0x00, 0x00, 0x00,
    0x01, 0x00, 0x00, 0x00, 0x04, 0x00, 0x00, 0x00, 0xda, 0xe2, 0xff, 0xff,
    0x00, 0x00, 0x00, 0x01, 0x18, 0x00, 0x00, 0x00, 0x20, 0x00, 0x00, 0x00,
    0x40, 0x00, 0x00, 0x00, 0x14, 0x00, 0x00, 0x00, 0x00, 0x00, 0x00, 0x09,
    0x68, 0x00, 0x00, 0x00, 0x02, 0x00, 0x00, 0x00, 0xff, 0xff, 0xff, 0xff,
    0x20, 0x00, 0x00, 0x00, 0xbc, 0xe2, 0xff, 0xff, 0x08, 0x00, 0x00, 0x00,
    0x14, 0x00, 0x00, 0x00, 0x01, 0x00, 0x00, 0x00, 0x80, 0xff, 0xff, 0xff,
    0xff, 0xff, 0xff, 0xff, 0x00, 0x00, 0x00, 0x00, 0x01, 0x00, 0x00, 0x00,
    0x60, 0x2c, 0x6d, 0x3c, 0x2c, 0x00, 0x00, 0x00, 0x73, 0x65, 0x71, 0x75,
    0x65, 0x6e, 0x74, 0x69, 0x61, 0x6c, 0x5f, 0x31, 0x2f, 0x67, 0x6c, 0x6f,
    0x62, 0x61, 0x6c, 0x5f, 0x61, 0x76, 0x65, 0x72, 0x61, 0x67, 0x65, 0x5f,
    0x70, 0x6f, 0x6f, 0x6c, 0x69, 0x6e, 0x67, 0x32, 0x64, 0x5f, 0x31, 0x2f,
    0x4d, 0x65, 0x61, 0x6e, 0x00, 0x00, 0x00, 0x00, 0x02, 0x00, 0x00, 0x00,
    0x01, 0x00, 0x00, 0x00, 0x20, 0x00, 0x00, 0x00, 0x6a, 0xe3, 0xff, 0xff,
    0x00, 0x00, 0x00, 0x01, 0x18, 0x00, 0x00, 0x00, 0x28, 0x00, 0x00, 0x00,
    0x44, 0x00, 0x00, 0x00, 0x13, 0x00, 0x00, 0x00, 0x00, 0x00, 0x00, 0x09,
    0xe8, 0x00, 0x00, 0x00, 0x04, 0x00, 0x00, 0x00, 0xff, 0xff, 0xff, 0xff,
    0x08, 0x00, 0x00, 0x00, 0x08, 0x00, 0x00, 0x00, 0x20, 0x00, 0x00, 0x00,
    0x54, 0xe3, 0xff, 0xff, 0x08, 0x00, 0x00, 0x00, 0x10, 0x00, 0x00, 0x00,
    0x01, 0x00, 0x00, 0x00, 0x80, 0xff, 0xff, 0xff, 0xff, 0xff, 0xff, 0xff,
    0x01, 0x00, 0x00, 0x00, 0xf7, 0x89, 0xb5, 0x3d, 0xa8, 0x00, 0x00, 0x00,
    0x73, 0x65, 0x71, 0x75, 0x65, 0x6e, 0x74, 0x69, 0x61, 0x6c, 0x5f, 0x31,
    0x2f, 0x72, 0x65, 0x5f, 0x6c, 0x75, 0x5f, 0x34, 0x5f, 0x31, 0x2f, 0x52,
    0x65, 0x6c, 0x75, 0x3b, 0x73, 0x65, 0x71, 0x75, 0x65, 0x6e, 0x74, 0x69,
    0x61, 0x6c, 0x5f, 0x31, 0x2f, 0x62, 0x61, 0x74, 0x63, 0x68, 0x5f, 0x6e,
    0x6f, 0x72, 0x6d, 0x61, 0x6c, 0x69, 0x7a, 0x61, 0x74, 0x69, 0x6f, 0x6e,
    0x5f, 0x34, 0x5f, 0x31, 0x2f, 0x62, 0x61, 0x74, 0x63, 0x68, 0x6e, 0x6f,
    0x72, 0x6d, 0x2f, 0x61, 0x64, 0x64, 0x5f, 0x31, 0x3b, 0x73, 0x65, 0x71,
    0x75, 0x65, 0x6e, 0x74, 0x69, 0x61, 0x6c, 0x5f, 0x31, 0x2f, 0x63, 0x6f,
    0x6e, 0x76, 0x32, 0x64, 0x5f, 0x32, 0x5f, 0x31, 0x2f, 0x63, 0x6f, 0x6e,
    0x76, 0x6f, 0x6c, 0x75, 0x74, 0x69, 0x6f, 0x6e, 0x3b, 0x73, 0x65, 0x71,
    0x75, 0x65, 0x6e, 0x74, 0x69, 0x61, 0x6c, 0x5f, 0x31, 0x2f, 0x62, 0x61,
    0x74, 0x63, 0x68, 0x5f, 0x6e, 0x6f, 0x72, 0x6d, 0x61, 0x6c, 0x69, 0x7a,
    0x61, 0x74, 0x69, 0x6f, 0x6e, 0x5f, 0x34, 0x5f, 0x31, 0x2f, 0x62, 0x61,
    0x74, 0x63, 0x68, 0x6e, 0x6f, 0x72, 0x6d, 0x2f, 0x73, 0x75, 0x62, 0x31,
    0x00, 0x00, 0x00, 0x00, 0x04, 0x00, 0x00, 0x00, 0x01, 0x00, 0x00, 0x00,
    0x08, 0x00, 0x00, 0x00, 0x08, 0x00, 0x00, 0x00, 0x20, 0x00, 0x00, 0x00,
    0x82, 0xe4, 0xff, 0xff, 0x00, 0x00, 0x00, 0x01, 0x18, 0x00, 0x00, 0x00,
    0x28, 0x00, 0x00, 0x00, 0x44, 0x00, 0x00, 0x00, 0x12, 0x00, 0x00, 0x00,
    0x00, 0x00, 0x00, 0x09, 0x58, 0x01, 0x00, 0x00, 0x04, 0x00, 0x00, 0x00,
    0xff, 0xff, 0xff, 0xff, 0x08, 0x00, 0x00, 0x00, 0x08, 0x00, 0x00, 0x00,
    0x20, 0x00, 0x00, 0x00, 0x6c, 0xe4, 0xff, 0xff, 0x08, 0x00, 0x00, 0x00,
    0x10, 0x00, 0x00, 0x00, 0x01, 0x00, 0x00, 0x00, 0x80, 0xff, 0xff, 0xff,
    0xff, 0xff, 0xff, 0xff, 0x01, 0x00, 0x00, 0x00, 0xac, 0x01, 0x44, 0x3d,
    0x18, 0x01, 0x00, 0x00, 0x73, 0x65, 0x71, 0x75, 0x65, 0x6e, 0x74, 0x69,
    0x61, 0x6c, 0x5f, 0x31, 0x2f, 0x72, 0x65, 0x5f, 0x6c, 0x75, 0x5f, 0x33,
    0x5f, 0x31, 0x2f, 0x52, 0x65, 0x6c, 0x75, 0x3b, 0x73, 0x65, 0x71, 0x75,
    0x65, 0x6e, 0x74, 0x69, 0x61, 0x6c, 0x5f, 0x31, 0x2f, 0x62, 0x61, 0x74,
    0x63, 0x68, 0x5f, 0x6e, 0x6f, 0x72, 0x6d, 0x61, 0x6c, 0x69, 0x7a, 0x61,
    0x74, 0x69, 0x6f, 0x6e, 0x5f, 0x33, 0x5f, 0x31, 0x2f, 0x62, 0x61, 0x74,
    0x63, 0x68, 0x6e, 0x6f, 0x72, 0x6d, 0x2f, 0x61, 0x64, 0x64, 0x5f, 0x31,
    0x3b, 0x73, 0x65, 0x71, 0x75, 0x65, 0x6e, 0x74, 0x69, 0x61, 0x6c, 0x5f,
    0x31, 0x2f, 0x62, 0x61, 0x74, 0x63, 0x68, 0x5f, 0x6e, 0x6f, 0x72, 0x6d,
    0x61, 0x6c, 0x69, 0x7a, 0x61, 0x74, 0x69, 0x6f, 0x6e, 0x5f, 0x33, 0x5f,
    0x31, 0x2f, 0x62, 0x61, 0x74, 0x63, 0x68, 0x6e, 0x6f, 0x72, 0x6d, 0x2f,
    0x6d, 0x75, 0x6c, 0x5f, 0x31, 0x3b, 0x73, 0x65, 0x71, 0x75, 0x65, 0x6e,
    0x74, 0x69, 0x61, 0x6c, 0x5f, 0x31, 0x2f, 0x64, 0x65, 0x70, 0x74, 0x68,
    0x77, 0x69, 0x73, 0x65, 0x5f, 0x63, 0x6f, 0x6e, 0x76, 0x32, 0x64, 0x5f,
    0x31, 0x5f, 0x32, 0x2f, 0x64, 0x65, 0x70, 0x74, 0x68, 0x77, 0x69, 0x73,
    0x65, 0x3b, 0x73, 0x65, 0x71, 0x75, 0x65, 0x6e, 0x74, 0x69, 0x61, 0x6c,
    0x5f, 0x31, 0x2f, 0x62, 0x61, 0x74, 0x63, 0x68, 0x5f, 0x6e, 0x6f, 0x72,
    0x6d, 0x61, 0x6c, 0x69, 0x7a, 0x61, 0x74, 0x69, 0x6f, 0x6e, 0x5f, 0x33,
    0x5f, 0x31, 0x2f, 0x62, 0x61, 0x74, 0x63, 0x68, 0x6e, 0x6f, 0x72, 0x6d,
    0x2f, 0x6d, 0x75, 0x6c, 0x3b, 0x73, 0x65, 0x71, 0x75, 0x65, 0x6e, 0x74,
    0x69, 0x61, 0x6c, 0x5f, 0x31, 0x2f, 0x62, 0x61, 0x74, 0x63, 0x68, 0x5f,
    0x6e, 0x6f, 0x72, 0x6d, 0x61, 0x6c, 0x69, 0x7a, 0x61, 0x74, 0x69, 0x6f,
    0x6e, 0x5f, 0x33, 0x5f, 0x31, 0x2f, 0x62, 0x61, 0x74, 0x63, 0x68, 0x6e,
    0x6f, 0x72, 0x6d, 0x2f, 0x73, 0x75, 0x62, 0x31, 0x00, 0x00, 0x00, 0x00,
    0x04, 0x00, 0x00, 0x00, 0x01, 0x00, 0x00, 0x00, 0x08, 0x00, 0x00, 0x00,
    0x08, 0x00, 0x00, 0x00, 0x20, 0x00, 0x00, 0x00, 0x0a, 0xe6, 0xff, 0xff,
    0x00, 0x00, 0x00, 0x01, 0x18, 0x00, 0x00, 0x00, 0x28, 0x00, 0x00, 0x00,
    0x44, 0x00, 0x00, 0x00, 0x11, 0x00, 0x00, 0x00, 0x00, 0x00, 0x00, 0x09,
    0xe8, 0x00, 0x00, 0x00, 0x04, 0x00, 0x00, 0x00, 0xff, 0xff, 0xff, 0xff,
    0x10, 0x00, 0x00, 0x00, 0x10, 0x00, 0x00, 0x00, 0x20, 0x00, 0x00, 0x00,
    0xf4, 0xe5, 0xff, 0xff, 0x08, 0x00, 0x00, 0x00, 0x10, 0x00, 0x00, 0x00,
    0x01, 0x00, 0x00, 0x00, 0x80, 0xff, 0xff, 0xff, 0xff, 0xff, 0xff, 0xff,
    0x01, 0x00, 0x00, 0x00, 0xf1, 0xb8, 0x36, 0x3d, 0xa8, 0x00, 0x00, 0x00,
    0x73, 0x65, 0x71, 0x75, 0x65, 0x6e, 0x74, 0x69, 0x61, 0x6c, 0x5f, 0x31,
    0x2f, 0x72, 0x65, 0x5f, 0x6c, 0x75, 0x5f, 0x32, 0x5f, 0x31, 0x2f, 0x52,
    0x65, 0x6c, 0x75, 0x3b, 0x73, 0x65, 0x71, 0x75, 0x65, 0x6e, 0x74, 0x69,
    0x61, 0x6c, 0x5f, 0x31, 0x2f, 0x62, 0x61, 0x74, 0x63, 0x68, 0x5f, 0x6e,
    0x6f, 0x72, 0x6d, 0x61, 0x6c, 0x69, 0x7a, 0x61, 0x74, 0x69, 0x6f, 0x6e,
    0x5f, 0x32, 0x5f, 0x31, 0x2f, 0x62, 0x61, 0x74, 0x63, 0x68, 0x6e, 0x6f,
    0x72, 0x6d, 0x2f, 0x61, 0x64, 0x64, 0x5f, 0x31, 0x3b, 0x73, 0x65, 0x71,
    0x75, 0x65, 0x6e, 0x74, 0x69, 0x61, 0x6c, 0x5f, 0x31, 0x2f, 0x63, 0x6f,
    0x6e, 0x76, 0x32, 0x64, 0x5f, 0x31, 0x5f, 0x32, 0x2f, 0x63, 0x6f, 0x6e,
    0x76, 0x6f, 0x6c, 0x75, 0x74, 0x69, 0x6f, 0x6e, 0x3b, 0x73, 0x65, 0x71,
    0x75, 0x65, 0x6e, 0x74, 0x69, 0x61, 0x6c, 0x5f, 0x31, 0x2f, 0x62, 0x61,
    0x74, 0x63, 0x68, 0x5f, 0x6e, 0x6f, 0x72, 0x6d, 0x61, 0x6c, 0x69, 0x7a,
    0x61, 0x74, 0x69, 0x6f, 0x6e, 0x5f, 0x32, 0x5f, 0x31, 0x2f, 0x62, 0x61,
    0x74, 0x63, 0x68, 0x6e, 0x6f, 0x72, 0x6d, 0x2f, 0x73, 0x75, 0x62, 0x31,
    0x00, 0x00, 0x00, 0x00, 0x04, 0x00, 0x00, 0x00, 0x01, 0x00, 0x00, 0x00,
    0x10, 0x00, 0x00, 0x00, 0x10, 0x00, 0x00, 0x00, 0x20, 0x00, 0x00, 0x00,
    0x22, 0xe7, 0xff, 0xff, 0x00, 0x00, 0x00, 0x01, 0x18, 0x00, 0x00, 0x00,
    0x28, 0x00, 0x00, 0x00, 0x48, 0x00, 0x00, 0x00, 0x10, 0x00, 0x00, 0x00,
    0x00, 0x00, 0x00, 0x09, 0x58, 0x01, 0x00, 0x00, 0x04, 0x00, 0x00, 0x00,
    0xff, 0xff, 0xff, 0xff, 0x10, 0x00, 0x00, 0x00, 0x10, 0x00, 0x00, 0x00,
    0x10, 0x00, 0x00, 0x00, 0x0c, 0xe7, 0xff, 0xff, 0x08, 0x00, 0x00, 0x00,
    0x14, 0x00, 0x00, 0x00, 0x01, 0x00, 0x00, 0x00, 0x80, 0xff, 0xff, 0xff,
    0xff, 0xff, 0xff, 0xff, 0x00, 0x00, 0x00, 0x00, 0x01, 0x00, 0x00, 0x00,
    0xab, 0x1c, 0xe3, 0x3c, 0x16, 0x01, 0x00, 0x00, 0x73, 0x65, 0x71, 0x75,
    0x65, 0x6e, 0x74, 0x69, 0x61, 0x6c, 0x5f, 0x31, 0x2f, 0x72, 0x65, 0x5f,
    0x6c, 0x75, 0x5f, 0x31, 0x5f, 0x32, 0x2f, 0x52, 0x65, 0x6c, 0x75, 0x3b,
    0x73, 0x65, 0x71, 0x75, 0x65, 0x6e, 0x74, 0x69, 0x61, 0x6c, 0x5f, 0x31,
    0x2f, 0x62, 0x61, 0x74, 0x63, 0x68, 0x5f, 0x6e, 0x6f, 0x72, 0x6d, 0x61,
    0x6c, 0x69, 0x7a, 0x61, 0x74, 0x69, 0x6f, 0x6e, 0x5f, 0x31, 0x5f, 0x32,
    0x2f, 0x62, 0x61, 0x74, 0x63, 0x68, 0x6e, 0x6f, 0x72, 0x6d, 0x2f, 0x61,
    0x64, 0x64, 0x5f, 0x31, 0x3b, 0x73, 0x65, 0x71, 0x75, 0x65, 0x6e, 0x74,
    0x69, 0x61, 0x6c, 0x5f, 0x31, 0x2f, 0x62, 0x61, 0x74, 0x63, 0x68, 0x5f,
    0x6e, 0x6f, 0x72, 0x6d, 0x61, 0x6c, 0x69, 0x7a, 0x61, 0x74, 0x69, 0x6f,
    0x6e, 0x5f, 0x31, 0x5f, 0x32, 0x2f, 0x62, 0x61, 0x74, 0x63, 0x68, 0x6e,
    0x6f, 0x72, 0x6d, 0x2f, 0x6d, 0x75, 0x6c, 0x5f, 0x31, 0x3b, 0x73, 0x65,
    0x71, 0x75, 0x65, 0x6e, 0x74, 0x69, 0x61, 0x6c, 0x5f, 0x31, 0x2f, 0x64,
    0x65, 0x70, 0x74, 0x68, 0x77, 0x69, 0x73, 0x65, 0x5f, 0x63, 0x6f, 0x6e,
    0x76, 0x32, 0x64, 0x5f, 0x31, 0x2f, 0x64, 0x65, 0x70, 0x74, 0x68, 0x77,
    0x69, 0x73, 0x65, 0x3b, 0x73, 0x65, 0x71, 0x75, 0x65, 0x6e, 0x74, 0x69,
    0x61, 0x6c, 0x5f, 0x31, 0x2f, 0x62, 0x61, 0x74, 0x63, 0x68, 0x5f, 0x6e,
    0x6f, 0x72, 0x6d, 0x61, 0x6c, 0x69, 0x7a, 0x61, 0x74, 0x69, 0x6f, 0x6e,
    0x5f, 0x31, 0x5f, 0x32, 0x2f, 0x62, 0x61, 0x74, 0x63, 0x68, 0x6e, 0x6f,
    0x72, 0x6d, 0x2f, 0x6d, 0x75, 0x6c, 0x3b, 0x73, 0x65, 0x71, 0x75, 0x65,
    0x6e, 0x74, 0x69, 0x61, 0x6c, 0x5f, 0x31, 0x2f, 0x62, 0x61, 0x74, 0x63,
    0x68, 0x5f, 0x6e, 0x6f, 0x72, 0x6d, 0x61, 0x6c, 0x69, 0x7a, 0x61, 0x74,
    0x69, 0x6f, 0x6e, 0x5f, 0x31, 0x5f, 0x32, 0x2f, 0x62, 0x61, 0x74, 0x63,
    0x68, 0x6e, 0x6f, 0x72, 0x6d, 0x2f, 0x73, 0x75, 0x62, 0x31, 0x00, 0x00,
    0x04, 0x00, 0x00, 0x00, 0x01, 0x00, 0x00, 0x00, 0x10, 0x00, 0x00, 0x00,
    0x10, 0x00, 0x00, 0x00, 0x10, 0x00, 0x00, 0x00, 0xaa, 0xe8, 0xff, 0xff,
    0x00, 0x00, 0x00, 0x01, 0x18, 0x00, 0x00, 0x00, 0x28, 0x00, 0x00, 0x00,
    0x44, 0x00, 0x00, 0x00, 0x0f, 0x00, 0x00, 0x00, 0x00, 0x00, 0x00, 0x09,
    0xe0, 0x00, 0x00, 0x00, 0x04, 0x00, 0x00, 0x00, 0xff, 0xff, 0xff, 0xff,
    0x20, 0x00, 0x00, 0x00, 0x20, 0x00, 0x00, 0x00, 0x10, 0x00, 0x00, 0x00,
    0x94, 0xe8, 0xff, 0xff, 0x08, 0x00, 0x00, 0x00, 0x10, 0x00, 0x00, 0x00,
    0x01, 0x00, 0x00, 0x00, 0x80, 0xff, 0xff, 0xff, 0xff, 0xff, 0xff, 0xff,
    0x01, 0x00, 0x00, 0x00, 0xd5, 0xbe, 0xaa, 0x3c, 0xa0, 0x00, 0x00, 0x00,
    0x73, 0x65, 0x71, 0x75, 0x65, 0x6e, 0x74, 0x69, 0x61, 0x6c, 0x5f, 0x31,
    0x2f, 0x72, 0x65, 0x5f, 0x6c, 0x75, 0x5f, 0x31, 0x2f, 0x52, 0x65, 0x6c,
    0x75, 0x3b, 0x73, 0x65, 0x71, 0x75, 0x65, 0x6e, 0x74, 0x69, 0x61, 0x6c,
    0x5f, 0x31, 0x2f, 0x62, 0x61, 0x74, 0x63, 0x68, 0x5f, 0x6e, 0x6f, 0x72,
    0x6d, 0x61, 0x6c, 0x69, 0x7a, 0x61, 0x74, 0x69, 0x6f, 0x6e, 0x5f, 0x31,
    0x2f, 0x62, 0x61, 0x74, 0x63, 0x68, 0x6e, 0x6f, 0x72, 0x6d, 0x2f, 0x61,
    0x64, 0x64, 0x5f, 0x31, 0x3b, 0x73, 0x65, 0x71, 0x75, 0x65, 0x6e, 0x74,
    0x69, 0x61, 0x6c, 0x5f, 0x31, 0x2f, 0x63, 0x6f, 0x6e, 0x76, 0x32, 0x64,
    0x5f, 0x31, 0x2f, 0x63, 0x6f, 0x6e, 0x76, 0x6f, 0x6c, 0x75, 0x74, 0x69,
    0x6f, 0x6e, 0x3b, 0x73, 0x65, 0x71, 0x75, 0x65, 0x6e, 0x74, 0x69, 0x61,
    0x6c, 0x5f, 0x31, 0x2f, 0x62, 0x61, 0x74, 0x63, 0x68, 0x5f, 0x6e, 0x6f,
    0x72, 0x6d, 0x61, 0x6c, 0x69, 0x7a, 0x61, 0x74, 0x69, 0x6f, 0x6e, 0x5f,
    0x31, 0x2f, 0x62, 0x61, 0x74, 0x63, 0x68, 0x6e, 0x6f, 0x72, 0x6d, 0x2f,
    0x73, 0x75, 0x62, 0x31, 0x00, 0x00, 0x00, 0x00, 0x04, 0x00, 0x00, 0x00,
    0x01, 0x00, 0x00, 0x00, 0x20, 0x00, 0x00, 0x00, 0x20, 0x00, 0x00, 0x00,
    0x10, 0x00, 0x00, 0x00, 0x42, 0xea, 0xff, 0xff, 0x00, 0x00, 0x00, 0x01,
    0x14, 0x00, 0x00, 0x00, 0xe8, 0x00, 0x00, 0x00, 0x0e, 0x00, 0x00, 0x00,
    0x00, 0x00, 0x00, 0x09, 0x04, 0x01, 0x00, 0x00, 0x8c, 0xe9, 0xff, 0xff,
    0x08, 0x00, 0x00, 0x00, 0x8c, 0x00, 0x00, 0x00, 0x10, 0x00, 0x00, 0x00,
    0x00, 0x00, 0x00, 0x00, 0x00, 0x00, 0x00, 0x00, 0x00, 0x00, 0x00, 0x00,
    0x00, 0x00, 0x00, 0x00, 0x00, 0x00, 0x00, 0x00, 0x00, 0x00, 0x00, 0x00,
    0x00, 0x00, 0x00, 0x00, 0x00, 0x00, 0x00, 0x00, 0x00, 0x00, 0x00, 0x00,
    0x00, 0x00, 0x00, 0x00, 0x00, 0x00, 0x00, 0x00, 0x00, 0x00, 0x00, 0x00,
    0x00, 0x00, 0x00, 0x00, 0x00, 0x00, 0x00, 0x00, 0x00, 0x00, 0x00, 0x00,
    0x00, 0x00, 0x00, 0x00, 0x00, 0x00, 0x00, 0x00, 0x00, 0x00, 0x00, 0x00,
    0x00, 0x00, 0x00, 0x00, 0x00, 0x00, 0x00, 0x00, 0x00, 0x00, 0x00, 0x00,
    0x00, 0x00, 0x00, 0x00, 0x00, 0x00, 0x00, 0x00, 0x00, 0x00, 0x00, 0x00,
    0x00, 0x00, 0x00, 0x00, 0x00, 0x00, 0x00, 0x00, 0x00, 0x00, 0x00, 0x00,
    0x00, 0x00, 0x00, 0x00, 0x00, 0x00, 0x00, 0x00, 0x00, 0x00, 0x00, 0x00,
    0x00, 0x00, 0x00, 0x00, 0x00, 0x00, 0x00, 0x00, 0x00, 0x00, 0x00, 0x00,
    0x10, 0x00, 0x00, 0x00, 0xfd, 0x1d, 0x0d, 0x3c, 0xb6, 0x89, 0x6b, 0x3c,
    0x99, 0xea, 0x22, 0x3c, 0xfd, 0xfa, 0x01, 0x3c, 0xf7, 0x30, 0x70, 0x3c,
    0x3c, 0x67, 0x7d, 0x3c, 0x7d, 0x45, 0x0d, 0x3c, 0x3d, 0xc4, 0x6c, 0x3b,
    0x51, 0x5b, 0x14, 0x3c, 0xe6, 0x54, 0x50, 0x3c, 0x64, 0x65, 0x9d, 0x3b,
    0x83, 0x5b, 0x4d, 0x3c, 0x05, 0x45, 0x0b, 0x3c, 0x84, 0xf5, 0x3b, 0x3c,
    0x3d, 0x54, 0xaa, 0x3b, 0x09, 0xbc, 0x7b, 0x3c, 0x21, 0x00, 0x00, 0x00,
    0x73, 0x65, 0x71, 0x75, 0x65, 0x6e, 0x74, 0x69, 0x61, 0x6c, 0x5f, 0x31,
    0x2f, 0x63, 0x6f, 0x6e, 0x76, 0x32, 0x64, 0x5f, 0x31, 0x2f, 0x63, 0x6f,
    0x6e, 0x76, 0x6f, 0x6c, 0x75, 0x74, 0x69, 0x6f, 0x6e, 0x00, 0x00, 0x00,
    0x04, 0x00, 0x00, 0x00, 0x10, 0x00, 0x00, 0x00, 0x03, 0x00, 0x00, 0x00,
    0x03, 0x00, 0x00, 0x00, 0x01, 0x00, 0x00, 0x00, 0x72, 0xeb, 0xff, 0xff,
    0x00, 0x00, 0x00, 0x01, 0x14, 0x00, 0x00, 0x00, 0xe4, 0x00, 0x00, 0x00,
    0x0d, 0x00, 0x00, 0x00, 0x00, 0x00, 0x00, 0x02, 0x7c, 0x01, 0x00, 0x00,
    0xbc, 0xea, 0xff, 0xff, 0x08, 0x00, 0x00, 0x00, 0x88, 0x00, 0x00, 0x00,
    0x10, 0x00, 0x00, 0x00, 0x00, 0x00, 0x00, 0x00, 0x00, 0x00, 0x00, 0x00,
    0x00, 0x00, 0x00, 0x00, 0x00, 0x00, 0x00, 0x00, 0x00, 0x00, 0x00, 0x00,
    0x00, 0x00, 0x00, 0x00, 0x00, 0x00, 0x00, 0x00, 0x00, 0x00, 0x00, 0x00,
    0x00, 0x00, 0x00, 0x00, 0x00, 0x00, 0x00, 0x00, 0x00, 0x00, 0x00, 0x00,
    0x00, 0x00, 0x00, 0x00, 0x00, 0x00, 0x00, 0x00, 0x00, 0x00, 0x00, 0x00,
    0x00, 0x00, 0x00, 0x00, 0x00, 0x00, 0x00, 0x00, 0x00, 0x00, 0x00, 0x00,
    0x00, 0x00, 0x00, 0x00, 0x00, 0x00, 0x00, 0x00, 0x00, 0x00, 0x00, 0x00,
    0x00, 0x00, 0x00, 0x00, 0x00, 0x00, 0x00, 0x00, 0x00, 0x00, 0x00, 0x00,
    0x00, 0x00, 0x00, 0x00, 0x00, 0x00, 0x00, 0x00, 0x00, 0x00, 0x00, 0x00,
    0x00, 0x00, 0x00, 0x00, 0x00, 0x00, 0x00, 0x00, 0x00, 0x00, 0x00, 0x00,
    0x00, 0x00, 0x00, 0x00, 0x00, 0x00, 0x00, 0x00, 0x00, 0x00, 0x00, 0x00,
    0x10, 0x00, 0x00, 0x00, 0xa9, 0xab, 0x0d, 0x38, 0x2d, 0x76, 0x6c, 0x38,
    0x28, 0x8e, 0x23, 0x38, 0x7b, 0x7d, 0x02, 0x38, 0x1a, 0x22, 0x71, 0x38,
    0xa3, 0x65, 0x7e, 0x38, 0x51, 0xd3, 0x0d, 0x38, 0xf0, 0xb1, 0x6d, 0x37,
    0x42, 0xf0, 0x14, 0x38, 0x0d, 0x26, 0x51, 0x38, 0x68, 0x03, 0x9e, 0x37,
    0xad, 0x29, 0x4e, 0x38, 0xd6, 0xd0, 0x0b, 0x38, 0x37, 0xb2, 0x3c, 0x38,
    0x3d, 0xff, 0xaa, 0x37, 0xc3, 0xb8, 0x7c, 0x38, 0x9f, 0x00, 0x00, 0x00,
    0x73, 0x65, 0x71, 0x75, 0x65, 0x6e, 0x74, 0x69, 0x61, 0x6c, 0x5f, 0x31,
    0x2f, 0x72, 0x65, 0x5f, 0x6c, 0x75, 0x5f, 0x31, 0x2f, 0x52, 0x65, 0x6c,
    0x75, 0x3b, 0x73, 0x65, 0x71, 0x75, 0x65, 0x6e, 0x74, 0x69, 0x61, 0x6c,
    0x5f, 0x31, 0x2f, 0x62, 0x61, 0x74, 0x63, 0x68, 0x5f, 0x6e, 0x6f, 0x72,
    0x6d, 0x61, 0x6c, 0x69, 0x7a, 0x61, 0x74, 0x69, 0x6f, 0x6e, 0x5f, 0x31,
    0x2f, 0x62, 0x61, 0x74, 0x63, 0x68, 0x6e, 0x6f, 0x72, 0x6d, 0x2f, 0x61,
    0x64, 0x64, 0x5f, 0x31, 0x3b, 0x73, 0x65, 0x71, 0x75, 0x65, 0x6e, 0x74,
    0x69, 0x61, 0x6c, 0x5f, 0x31, 0x2f, 0x63, 0x6f, 0x6e, 0x76, 0x32, 0x64,
    0x5f, 0x31, 0x2f, 0x63, 0x6f, 0x6e, 0x76, 0x6f, 0x6c, 0x75, 0x74, 0x69,
    0x6f, 0x6e, 0x3b, 0x73, 0x65, 0x71, 0x75, 0x65, 0x6e, 0x74, 0x69, 0x61,
    0x6c, 0x5f, 0x31, 0x2f, 0x62, 0x61, 0x74, 0x63, 0x68, 0x5f, 0x6e, 0x6f,
    0x72, 0x6d, 0x61, 0x6c, 0x69, 0x7a, 0x61, 0x74, 0x69, 0x6f, 0x6e, 0x5f,
    0x31, 0x2f, 0x62, 0x61, 0x74, 0x63, 0x68, 0x6e, 0x6f, 0x72, 0x6d, 0x2f,
    0x73, 0x75, 0x62, 0x00, 0x01, 0x00, 0x00, 0x00, 0x10, 0x00, 0x00, 0x00,
    0x0e, 0xed, 0xff, 0xff, 0x00, 0x00, 0x00, 0x01, 0x14, 0x00, 0x00, 0x00,
    0xec, 0x00, 0x00, 0x00, 0x0c, 0x00, 0x00, 0x00, 0x00, 0x00, 0x00, 0x09,
    0x78, 0x01, 0x00, 0x00, 0xd2, 0xf7, 0xff, 0xff, 0x03, 0x00, 0x00, 0x00,
    0x08, 0x00, 0x00, 0x00, 0x8c, 0x00, 0x00, 0x00, 0x10, 0x00, 0x00, 0x00,
    0x00, 0x00, 0x00, 0x00, 0x00, 0x00, 0x00, 0x00, 0x00, 0x00, 0x00, 0x00,
    0x00, 0x00, 0x00, 0x00, 0x00, 0x00, 0x00, 0x00, 0x00, 0x00, 0x00, 0x00,
    0x00, 0x00, 0x00, 0x00, 0x00, 0x00, 0x00, 0x00, 0x00, 0x00, 0x00, 0x00,
    0x00, 0x00, 0x00, 0x00, 0x00, 0x00, 0x00, 0x00, 0x00, 0x00, 0x00, 0x00,
    0x00, 0x00, 0x00, 0x00, 0x00, 0x00, 0x00, 0x00, 0x00, 0x00, 0x00, 0x00,
    0x00, 0x00, 0x00, 0x00, 0x00, 0x00, 0x00, 0x00, 0x00, 0x00, 0x00, 0x00,
    0x00, 0x00, 0x00, 0x00, 0x00, 0x00, 0x00, 0x00, 0x00, 0x00, 0x00, 0x00,
    0x00, 0x00, 0x00, 0x00, 0x00, 0x00, 0x00, 0x00, 0x00, 0x00, 0x00, 0x00,
    0x00, 0x00, 0x00, 0x00, 0x00, 0x00, 0x00, 0x00, 0x00, 0x00, 0x00, 0x00,
    0x00, 0x00, 0x00, 0x00, 0x00, 0x00, 0x00, 0x00, 0x00, 0x00, 0x00, 0x00,
    0x00, 0x00, 0x00, 0x00, 0x00, 0x00, 0x00, 0x00, 0x00, 0x00, 0x00, 0x00,
    0x10, 0x00, 0x00, 0x00, 0x63, 0x88, 0x5b, 0x3b, 0xdd, 0x0e, 0x8a, 0x3b,
    0x9d, 0xe7, 0xc3, 0x3b, 0x92, 0x64, 0x50, 0x3c, 0xd6, 0x56, 0xf6, 0x3b,
    0x78, 0x25, 0x0f, 0x3c, 0x03, 0x77, 0x3e, 0x3c, 0xa0, 0xd9, 0x0d, 0x3c,
    0x72, 0x32, 0x04, 0x3c, 0x0b, 0x6c, 0x1a, 0x3b, 0x60, 0x30, 0x44, 0x3c,
    0xe8, 0xe0, 0x08, 0x3b, 0xa6, 0x49, 0x26, 0x3b, 0xf7, 0xcb, 0x34, 0x3b,
    0x85, 0xff, 0x4a, 0x3c, 0x96, 0x9f, 0x94, 0x3b, 0x91, 0x00, 0x00, 0x00,
    0x73, 0x65, 0x71, 0x75, 0x65, 0x6e, 0x74, 0x69, 0x61, 0x6c, 0x5f, 0x31,
    0x2f, 0x62, 0x61, 0x74, 0x63, 0x68, 0x5f, 0x6e, 0x6f, 0x72, 0x6d, 0x61,
    0x6c, 0x69, 0x7a, 0x61, 0x74, 0x69, 0x6f, 0x6e, 0x5f, 0x31, 0x5f, 0x32,
    0x2f, 0x62, 0x61, 0x74, 0x63, 0x68, 0x6e, 0x6f, 0x72, 0x6d, 0x2f, 0x6d,
    0x75, 0x6c, 0x5f, 0x31, 0x3b, 0x73, 0x65, 0x71, 0x75, 0x65, 0x6e, 0x74,
    0x69, 0x61, 0x6c, 0x5f, 0x31, 0x2f, 0x64, 0x65, 0x70, 0x74, 0x68, 0x77,
    0x69, 0x73, 0x65, 0x5f, 0x63, 0x6f, 0x6e, 0x76, 0x32, 0x64, 0x5f, 0x31,
    0x2f, 0x64, 0x65, 0x70, 0x74, 0x68, 0x77, 0x69, 0x73, 0x65, 0x3b, 0x73,
    0x65, 0x71, 0x75, 0x65, 0x6e, 0x74, 0x69, 0x61, 0x6c, 0x5f, 0x31, 0x2f,
    0x62, 0x61, 0x74, 0x63, 0x68, 0x5f, 0x6e, 0x6f, 0x72, 0x6d, 0x61, 0x6c,
    0x69, 0x7a, 0x61, 0x74, 0x69, 0x6f, 0x6e, 0x5f, 0x31, 0x5f, 0x32, 0x2f,
    0x62, 0x61, 0x74, 0x63, 0x68, 0x6e, 0x6f, 0x72, 0x6d, 0x2f, 0x6d, 0x75,
    0x6c, 0x00, 0x00, 0x00, 0x04, 0x00, 0x00, 0x00, 0x01, 0x00, 0x00, 0x00,
    0x03, 0x00, 0x00, 0x00, 0x03, 0x00, 0x00, 0x00, 0x10, 0x00, 0x00, 0x00,
    0xb2, 0xee, 0xff, 0xff, 0x00, 0x00, 0x00, 0x01, 0x14, 0x00, 0x00, 0x00,
    0xe8, 0x00, 0x00, 0x00, 0x0b, 0x00, 0x00, 0x00, 0x00, 0x00, 0x00, 0x02,
    0xf8, 0x01, 0x00, 0x00, 0xfc, 0xed, 0xff, 0xff, 0x08, 0x00, 0x00, 0x00,
    0x8c, 0x00, 0x00, 0x00, 0x10, 0x00, 0x00, 0x00, 0x00, 0x00, 0x00, 0x00,
    0x00, 0x00, 0x00, 0x00, 0x00, 0x00, 0x00, 0x00, 0x00, 0x00, 0x00, 0x00,
    0x00, 0x00, 0x00, 0x00, 0x00, 0x00, 0x00, 0x00, 0x00, 0x00, 0x00, 0x00,
    0x00, 0x00, 0x00, 0x00, 0x00, 0x00, 0x00, 0x00, 0x00, 0x00, 0x00, 0x00,
    0x00, 0x00, 0x00, 0x00, 0x00, 0x00, 0x00, 0x00, 0x00, 0x00, 0x00, 0x00,
    0x00, 0x00, 0x00, 0x00, 0x00, 0x00, 0x00, 0x00, 0x00, 0x00, 0x00, 0x00,
    0x00, 0x00, 0x00, 0x00, 0x00, 0x00, 0x00, 0x00, 0x00, 0x00, 0x00, 0x00,
    0x00, 0x00, 0x00, 0x00, 0x00, 0x00, 0x00, 0x00, 0x00, 0x00, 0x00, 0x00,
    0x00, 0x00, 0x00, 0x00, 0x00, 0x00, 0x00, 0x00, 0x00, 0x00, 0x00, 0x00,
    0x00, 0x00, 0x00, 0x00, 0x00, 0x00, 0x00, 0x00, 0x00, 0x00, 0x00, 0x00,
    0x00, 0x00, 0x00, 0x00, 0x00, 0x00, 0x00, 0x00, 0x00, 0x00, 0x00, 0x00,
    0x00, 0x00, 0x00, 0x00, 0x00, 0x00, 0x00, 0x00, 0x10, 0x00, 0x00, 0x00,
    0x38, 0x6c, 0x92, 0x38, 0x91, 0x29, 0xb8, 0x38, 0xd7, 0xa9, 0x02, 0x39,
    0x21, 0xfe, 0x8a, 0x39, 0x4c, 0x4d, 0x24, 0x39, 0x2d, 0xf3, 0x3e, 0x39,
    0x06, 0x12, 0x7e, 0x39, 0x84, 0x38, 0x3d, 0x39, 0x16, 0x58, 0x30, 0x39,
    0xb8, 0xfd, 0x4d, 0x38, 0x5f, 0xda, 0x82, 0x39, 0xc6, 0x96, 0x36, 0x38,
    0xbb, 0xd1, 0x5d, 0x38, 0x70, 0x2c, 0x71, 0x38, 0x01, 0x65, 0x87, 0x39,
    0x87, 0x41, 0xc6, 0x38, 0x15, 0x01, 0x00, 0x00, 0x73, 0x65, 0x71, 0x75,
    0x65, 0x6e, 0x74, 0x69, 0x61, 0x6c, 0x5f, 0x31, 0x2f, 0x72, 0x65, 0x5f,
    0x6c, 0x75, 0x5f, 0x31, 0x5f, 0x32, 0x2f, 0x52, 0x65, 0x6c, 0x75, 0x3b,
    0x73, 0x65, 0x71, 0x75, 0x65, 0x6e, 0x74, 0x69, 0x61, 0x6c, 0x5f, 0x31,
    0x2f, 0x62, 0x61, 0x74, 0x63, 0x68, 0x5f, 0x6e, 0x6f, 0x72, 0x6d, 0x61,
    0x6c, 0x69, 0x7a, 0x61, 0x74, 0x69, 0x6f, 0x6e, 0x5f, 0x31, 0x5f, 0x32,
    0x2f, 0x62, 0x61, 0x74, 0x63, 0x68, 0x6e, 0x6f, 0x72, 0x6d, 0x2f, 0x61,
    0x64, 0x64, 0x5f, 0x31, 0x3b, 0x73, 0x65, 0x71, 0x75, 0x65, 0x6e, 0x74,
    0x69, 0x61, 0x6c, 0x5f, 0x31, 0x2f, 0x62, 0x61, 0x74, 0x63, 0x68, 0x5f,
    0x6e, 0x6f, 0x72, 0x6d, 0x61, 0x6c, 0x69, 0x7a, 0x61, 0x74, 0x69, 0x6f,
    0x6e, 0x5f, 0x31, 0x5f, 0x32, 0x2f, 0x62, 0x61, 0x74, 0x63, 0x68, 0x6e,
    0x6f, 0x72, 0x6d, 0x2f, 0x6d, 0x75, 0x6c, 0x5f, 0x31, 0x3b, 0x73, 0x65,
    0x71, 0x75, 0x65, 0x6e, 0x74, 0x69, 0x61, 0x6c, 0x5f, 0x31, 0x2f, 0x64,
    0x65, 0x70, 0x74, 0x68, 0x77, 0x69, 0x73, 0x65, 0x5f, 0x63, 0x6f, 0x6e,
    0x76, 0x32, 0x64, 0x5f, 0x31, 0x2f, 0x64, 0x65, 0x70, 0x74, 0x68, 0x77,
    0x69, 0x73, 0x65, 0x3b, 0x73, 0x65, 0x71, 0x75, 0x65, 0x6e, 0x74, 0x69,
    0x61, 0x6c, 0x5f, 0x31, 0x2f, 0x62, 0x61, 0x74, 0x63, 0x68, 0x5f, 0x6e,
    0x6f, 0x72, 0x6d, 0x61, 0x6c, 0x69, 0x7a, 0x61, 0x74, 0x69, 0x6f, 0x6e,
    0x5f, 0x31, 0x5f, 0x32, 0x2f, 0x62, 0x61, 0x74, 0x63, 0x68, 0x6e, 0x6f,
    0x72, 0x6d, 0x2f, 0x6d, 0x75, 0x6c, 0x3b, 0x73, 0x65, 0x71, 0x75, 0x65,
    0x6e, 0x74, 0x69, 0x61, 0x6c, 0x5f, 0x31, 0x2f, 0x62, 0x61, 0x74, 0x63,
    0x68, 0x5f, 0x6e, 0x6f, 0x72, 0x6d, 0x61, 0x6c, 0x69, 0x7a, 0x61, 0x74,
    0x69, 0x6f, 0x6e, 0x5f, 0x31, 0x5f, 0x32, 0x2f, 0x62, 0x61, 0x74, 0x63,
    0x68, 0x6e, 0x6f, 0x72, 0x6d, 0x2f, 0x73, 0x75, 0x62, 0x00, 0x00, 0x00,
    0x01, 0x00, 0x00, 0x00, 0x10, 0x00, 0x00, 0x00, 0xca, 0xf0, 0xff, 0xff,
    0x00, 0x00, 0x00, 0x01, 0x14, 0x00, 0x00, 0x00, 0xa8, 0x01, 0x00, 0x00,
    0x0a, 0x00, 0x00, 0x00, 0x00, 0x00, 0x00, 0x09, 0xc4, 0x01, 0x00, 0x00,
    0x14, 0xf0, 0xff, 0xff, 0x08, 0x00, 0x00, 0x00, 0x0c, 0x01, 0x00, 0x00,
    0x20, 0x00, 0x00, 0x00, 0x00, 0x00, 0x00, 0x00, 0x00, 0x00, 0x00, 0x00,
    0x00, 0x00, 0x00, 0x00, 0x00, 0x00, 0x00, 0x00, 0x00, 0x00, 0x00, 0x00,
    0x00, 0x00, 0x00, 0x00, 0x00, 0x00, 0x00, 0x00, 0x00, 0x00, 0x00, 0x00,
    0x00, 0x00, 0x00, 0x00, 0x00, 0x00, 0x00, 0x00, 0x00, 0x00, 0x00, 0x00,
    0x00, 0x00, 0x00, 0x00, 0x00, 0x00, 0x00, 0x00, 0x00, 0x00, 0x00, 0x00,
    0x00, 0x00, 0x00, 0x00, 0x00, 0x00, 0x00, 0x00, 0x00, 0x00, 0x00, 0x00,
    0x00, 0x00, 0x00, 0x00, 0x00, 0x00, 0x00, 0x00, 0x00, 0x00, 0x00, 0x00,
    0x00, 0x00, 0x00, 0x00, 0x00, 0x00, 0x00, 0x00, 0x00, 0x00, 0x00, 0x00,
    0x00, 0x00, 0x00, 0x00, 0x00, 0x00, 0x00, 0x00, 0x00, 0x00, 0x00, 0x00,
    0x00, 0x00, 0x00, 0x00, 0x00, 0x00, 0x00, 0x00, 0x00, 0x00, 0x00, 0x00,
    0x00, 0x00, 0x00, 0x00, 0x00, 0x00, 0x00, 0x00, 0x00, 0x00, 0x00, 0x00,
    0x00, 0x00, 0x00, 0x00, 0x00, 0x00, 0x00, 0x00, 0x00, 0x00, 0x00, 0x00,
    0x00, 0x00, 0x00, 0x00, 0x00, 0x00, 0x00, 0x00, 0x00, 0x00, 0x00, 0x00,
    0x00, 0x00, 0x00, 0x00, 0x00, 0x00, 0x00, 0x00, 0x00, 0x00, 0x00, 0x00,
    0x00, 0x00, 0x00, 0x00, 0x00, 0x00, 0x00, 0x00, 0x00, 0x00, 0x00, 0x00,
    0x00, 0x00, 0x00, 0x00, 0x00, 0x00, 0x00, 0x00, 0x00, 0x00, 0x00, 0x00,
    0x00, 0x00, 0x00, 0x00, 0x00, 0x00, 0x00, 0x00, 0x00, 0x00, 0x00, 0x00,
    0x00, 0x00, 0x00, 0x00, 0x00, 0x00, 0x00, 0x00, 0x00, 0x00, 0x00, 0x00,
    0x00, 0x00, 0x00, 0x00, 0x00, 0x00, 0x00, 0x00, 0x00, 0x00, 0x00, 0x00,
    0x00, 0x00, 0x00, 0x00, 0x00, 0x00, 0x00, 0x00, 0x00, 0x00, 0x00, 0x00,
    0x00, 0x00, 0x00, 0x00, 0x00, 0x00, 0x00, 0x00, 0x00, 0x00, 0x00, 0x00,
    0x00, 0x00, 0x00, 0x00, 0x00, 0x00, 0x00, 0x00, 0x00, 0x00, 0x00, 0x00,
    0x20, 0x00, 0x00, 0x00, 0xff, 0x77, 0xf0, 0x3b, 0x4b, 0x01, 0xc6, 0x3b,
    0x7d, 0x2a, 0x2e, 0x3c, 0xf9, 0x7e, 0xd8, 0x3b, 0x8a, 0x24, 0x6d, 0x3b,
    0x25, 0xe3, 0x1c, 0x3c, 0x43, 0x2f, 0xdc, 0x3b, 0x3c, 0x5c, 0x01, 0x3c,
    0xa3, 0xb8, 0x3a, 0x3c, 0x46, 0x69, 0xc0, 0x3b, 0xab, 0x07, 0x8b, 0x3b,
    0xc8, 0x71, 0x1c, 0x3c, 0xfe, 0x2a, 0x19, 0x3c, 0x9c, 0x30, 0x5e, 0x3b,
    0x13, 0x70, 0xb6, 0x3b, 0x5e, 0x95, 0x7b, 0x3b, 0xa0, 0xb0, 0x03, 0x3c,
    0x7a, 0xc8, 0xf2, 0x3b, 0xb0, 0x43, 0xb4, 0x3b, 0x8c, 0xef, 0x3b, 0x3c,
    0x34, 0xeb, 0x8b, 0x3b, 0x09, 0xd2, 0x53, 0x3b, 0xd4, 0xf7, 0xd2, 0x3b,
    0xe7, 0xdb, 0x54, 0x3c, 0x47, 0xa9, 0x9e, 0x3b, 0xd3, 0xf7, 0xf7, 0x3b,
    0x13, 0x05, 0x96, 0x3b, 0x22, 0x43, 0xe0, 0x3b, 0xfe, 0x40, 0x36, 0x3b,
    0x05, 0xf2, 0xcc, 0x3b, 0x76, 0xf7, 0x06, 0x3c, 0x0b, 0x5f, 0xbe, 0x3b,
    0x23, 0x00, 0x00, 0x00, 0x73, 0x65, 0x71, 0x75, 0x65, 0x6e, 0x74, 0x69,
    0x61, 0x6c, 0x5f, 0x31, 0x2f, 0x63, 0x6f, 0x6e, 0x76, 0x32, 0x64, 0x5f,
    0x31, 0x5f, 0x32, 0x2f, 0x63, 0x6f, 0x6e, 0x76, 0x6f, 0x6c, 0x75, 0x74,
    0x69, 0x6f, 0x6e, 0x00, 0x04, 0x00, 0x00, 0x00, 0x20, 0x00, 0x00, 0x00,
    0x01, 0x00, 0x00, 0x00, 0x01, 0x00, 0x00, 0x00, 0x10, 0x00, 0x00, 0x00,
    0xba, 0xf2, 0xff, 0xff, 0x00, 0x00, 0x00, 0x01, 0x14, 0x00, 0x00, 0x00,
    0xa8, 0x01, 0x00, 0x00, 0x09, 0x00, 0x00, 0x00, 0x00, 0x00, 0x00, 0x02,
    0x48, 0x02, 0x00, 0x00, 0x04, 0xf2, 0xff, 0xff, 0x08, 0x00, 0x00, 0x00,
    0x0c, 0x01, 0x00, 0x00, 0x20, 0x00, 0x00, 0x00, 0x00, 0x00, 0x00, 0x00,
    0x00, 0x00, 0x00, 0x00, 0x00, 0x00, 0x00, 0x00, 0x00, 0x00, 0x00, 0x00,
    0x00, 0x00, 0x00, 0x00, 0x00, 0x00, 0x00, 0x00, 0x00, 0x00, 0x00, 0x00,
    0x00, 0x00, 0x00, 0x00, 0x00, 0x00, 0x00, 0x00, 0x00, 0x00, 0x00, 0x00,
    0x00, 0x00, 0x00, 0x00, 0x00, 0x00, 0x00, 0x00, 0x00, 0x00, 0x00, 0x00,
    0x00, 0x00, 0x00, 0x00, 0x00, 0x00, 0x00, 0x00, 0x00, 0x00, 0x00, 0x00,
    0x00, 0x00, 0x00, 0x00, 0x00, 0x00, 0x00, 0x00, 0x00, 0x00, 0x00, 0x00,
    0x00, 0x00, 0x00, 0x00, 0x00, 0x00, 0x00, 0x00, 0x00, 0x00, 0x00, 0x00,
    0x00, 0x00, 0x00, 0x00, 0x00, 0x00, 0x00, 0x00, 0x00, 0x00, 0x00, 0x00,
    0x00, 0x00, 0x00, 0x00, 0x00, 0x00, 0x00, 0x00, 0x00, 0x00, 0x00, 0x00,
    0x00, 0x00, 0x00, 0x00, 0x00, 0x00, 0x00, 0x00, 0x00, 0x00, 0x00, 0x00,
    0x00, 0x00, 0x00, 0x00, 0x00, 0x00, 0x00, 0x00, 0x00, 0x00, 0x00, 0x00,
    0x00, 0x00, 0x00, 0x00, 0x00, 0x00, 0x00, 0x00, 0x00, 0x00, 0x00, 0x00,
    0x00, 0x00, 0x00, 0x00, 0x00, 0x00, 0x00, 0x00, 0x00, 0x00, 0x00, 0x00,
    0x00, 0x00, 0x00, 0x00, 0x00, 0x00, 0x00, 0x00, 0x00, 0x00, 0x00, 0x00,
    0x00, 0x00, 0x00, 0x00, 0x00, 0x00, 0x00, 0x00, 0x00, 0x00, 0x00, 0x00,
    0x00, 0x00, 0x00, 0x00, 0x00, 0x00, 0x00, 0x00, 0x00, 0x00, 0x00, 0x00,
    0x00, 0x00, 0x00, 0x00, 0x00, 0x00, 0x00, 0x00, 0x00, 0x00, 0x00, 0x00,
    0x00, 0x00, 0x00, 0x00, 0x00, 0x00, 0x00, 0x00, 0x00, 0x00, 0x00, 0x00,
    0x00, 0x00, 0x00, 0x00, 0x00, 0x00, 0x00, 0x00, 0x00, 0x00, 0x00, 0x00,
    0x00, 0x00, 0x00, 0x00, 0x00, 0x00, 0x00, 0x00, 0x00, 0x00, 0x00, 0x00,
    0x00, 0x00, 0x00, 0x00, 0x00, 0x00, 0x00, 0x00, 0x00, 0x00, 0x00, 0x00,
    0x00, 0x00, 0x00, 0x00, 0x20, 0x00, 0x00, 0x00, 0x55, 0x55, 0x55, 0x39,
    0x52, 0xa9, 0x2f, 0x39, 0x2e, 0x83, 0x9a, 0x39, 0xd5, 0x10, 0x40, 0x39,
    0xf5, 0x61, 0xd2, 0x38, 0xfb, 0x2e, 0x8b, 0x39, 0x91, 0x56, 0x43, 0x39,
    0x8b, 0x86, 0x65, 0x39, 0xa1, 0xa6, 0xa5, 0x39, 0xe5, 0xb2, 0x2a, 0x39,
    0xbd, 0xae, 0xf6, 0x38, 0x69, 0xca, 0x8a, 0x39, 0x46, 0xe2, 0x87, 0x39,
    0xfc, 0x1d, 0xc5, 0x38, 0xcf, 0xd9, 0x21, 0x39, 0x9f, 0x31, 0xdf, 0x38,
    0xba, 0xa8, 0x69, 0x39, 0xf4, 0x62, 0x57, 0x39, 0x35, 0xec, 0x1f, 0x39,
    0x75, 0xba, 0xa6, 0x39, 0x75, 0x42, 0xf8, 0x38, 0xf6, 0xea, 0xbb, 0x38,
    0x61, 0x29, 0x3b, 0x39, 0xd4, 0xd6, 0xbc, 0x39, 0xde, 0xc1, 0x0c, 0x39,
    0x85, 0xfc, 0x5b, 0x39, 0x4d, 0x17, 0x05, 0x39, 0xa4, 0xf4, 0x46, 0x39,
    0x0a, 0xb0, 0xa1, 0x38, 0x8e, 0xd1, 0x35, 0x39, 0x16, 0x79, 0x6f, 0x39,
    0x98, 0xe3, 0x28, 0x39, 0xa7, 0x00, 0x00, 0x00, 0x73, 0x65, 0x71, 0x75,
    0x65, 0x6e, 0x74, 0x69, 0x61, 0x6c, 0x5f, 0x31, 0x2f, 0x72, 0x65, 0x5f,
    0x6c, 0x75, 0x5f, 0x32, 0x5f, 0x31, 0x2f, 0x52, 0x65, 0x6c, 0x75, 0x3b,
    0x73, 0x65, 0x71, 0x75, 0x65, 0x6e, 0x74, 0x69, 0x61, 0x6c, 0x5f, 0x31,
    0x2f, 0x62, 0x61, 0x74, 0x63, 0x68, 0x5f, 0x6e, 0x6f, 0x72, 0x6d, 0x61,
    0x6c, 0x69, 0x7a, 0x61, 0x74, 0x69, 0x6f, 0x6e, 0x5f, 0x32, 0x5f, 0x31,
    0x2f, 0x62, 0x61, 0x74, 0x63, 0x68, 0x6e, 0x6f, 0x72, 0x6d, 0x2f, 0x61,
    0x64, 0x64, 0x5f, 0x31, 0x3b, 0x73, 0x65, 0x71, 0x75, 0x65, 0x6e, 0x74,
    0x69, 0x61, 0x6c, 0x5f, 0x31, 0x2f, 0x63, 0x6f, 0x6e, 0x76, 0x32, 0x64,
    0x5f, 0x31, 0x5f, 0x32, 0x2f, 0x63, 0x6f, 0x6e, 0x76, 0x6f, 0x6c, 0x75,
    0x74, 0x69, 0x6f, 0x6e, 0x3b, 0x73, 0x65, 0x71, 0x75, 0x65, 0x6e, 0x74,
    0x69, 0x61, 0x6c, 0x5f, 0x31, 0x2f, 0x62, 0x61, 0x74, 0x63, 0x68, 0x5f,
    0x6e, 0x6f, 0x72, 0x6d, 0x61, 0x6c, 0x69, 0x7a, 0x61, 0x74, 0x69, 0x6f,
    0x6e, 0x5f, 0x32, 0x5f, 0x31, 0x2f, 0x62, 0x61, 0x74, 0x63, 0x68, 0x6e,
    0x6f, 0x72, 0x6d, 0x2f, 0x73, 0x75, 0x62, 0x00, 0x01, 0x00, 0x00, 0x00,
    0x20, 0x00, 0x00, 0x00, 0x00, 0x00, 0x16, 0x00, 0x1e, 0x00, 0x18, 0x00,
    0x17, 0x00, 0x10, 0x00, 0x0c, 0x00, 0x08, 0x00, 0x00, 0x00, 0x00, 0x00,
    0x00, 0x00, 0x07, 0x00, 0x16, 0x00, 0x00, 0x00, 0x00, 0x00, 0x00, 0x01,
    0x28, 0x00, 0x00, 0x00, 0xc0, 0x01, 0x00, 0x00, 0x08, 0x00, 0x00, 0x00,
    0x00, 0x00, 0x00, 0x09, 0x4c, 0x02, 0x00, 0x00, 0x00, 0x00, 0x12, 0x00,
    0x10, 0x00, 0x00, 0x00, 0x00, 0x00, 0x0c, 0x00, 0x08, 0x00, 0x00, 0x00,
    0x00, 0x00, 0x04, 0x00, 0x12, 0x00, 0x00, 0x00, 0x03, 0x00, 0x00, 0x00,
    0x08, 0x00, 0x00, 0x00, 0x0c, 0x01, 0x00, 0x00, 0x20, 0x00, 0x00, 0x00,
    0x00, 0x00, 0x00, 0x00, 0x00, 0x00, 0x00, 0x00, 0x00, 0x00, 0x00, 0x00,
    0x00, 0x00, 0x00, 0x00, 0x00, 0x00, 0x00, 0x00, 0x00, 0x00, 0x00, 0x00,
    0x00, 0x00, 0x00, 0x00, 0x00, 0x00, 0x00, 0x00, 0x00, 0x00, 0x00, 0x00,
    0x00, 0x00, 0x00, 0x00, 0x00, 0x00, 0x00, 0x00, 0x00, 0x00, 0x00, 0x00,
    0x00, 0x00, 0x00, 0x00, 0x00, 0x00, 0x00, 0x00, 0x00, 0x00, 0x00, 0x00,
    0x00, 0x00, 0x00, 0x00, 0x00, 0x00, 0x00, 0x00, 0x00, 0x00, 0x00, 0x00,
    0x00, 0x00, 0x00, 0x00, 0x00, 0x00, 0x00, 0x00, 0x00, 0x00, 0x00, 0x00,
    0x00, 0x00, 0x00, 0x00, 0x00, 0x00, 0x00, 0x00, 0x00, 0x00, 0x00, 0x00,
    0x00, 0x00, 0x00, 0x00, 0x00, 0x00, 0x00, 0x00, 0x00, 0x00, 0x00, 0x00,
    0x00, 0x00, 0x00, 0x00, 0x00, 0x00, 0x00, 0x00, 0x00, 0x00, 0x00, 0x00,
    0x00, 0x00, 0x00, 0x00, 0x00, 0x00, 0x00, 0x00, 0x00, 0x00, 0x00, 0x00,
    0x00, 0x00, 0x00, 0x00, 0x00, 0x00, 0x00, 0x00, 0x00, 0x00, 0x00, 0x00,
    0x00, 0x00, 0x00, 0x00, 0x00, 0x00, 0x00, 0x00, 0x00, 0x00, 0x00, 0x00,
    0x00, 0x00, 0x00, 0x00, 0x00, 0x00, 0x00, 0x00, 0x00, 0x00, 0x00, 0x00,
    0x00, 0x00, 0x00, 0x00, 0x00, 0x00, 0x00, 0x00, 0x00, 0x00, 0x00, 0x00,
    0x00, 0x00, 0x00, 0x00, 0x00, 0x00, 0x00, 0x00, 0x00, 0x00, 0x00, 0x00,
    0x00, 0x00, 0x00, 0x00, 0x00, 0x00, 0x00, 0x00, 0x00, 0x00, 0x00, 0x00,
    0x00, 0x00, 0x00, 0x00, 0x00, 0x00, 0x00, 0x00, 0x00, 0x00, 0x00, 0x00,
    0x00, 0x00, 0x00, 0x00, 0x00, 0x00, 0x00, 0x00, 0x00, 0x00, 0x00, 0x00,
    0x00, 0x00, 0x00, 0x00, 0x00, 0x00, 0x00, 0x00, 0x00, 0x00, 0x00, 0x00,
    0x00, 0x00, 0x00, 0x00, 0x00, 0x00, 0x00, 0x00, 0x00, 0x00, 0x00, 0x00,
    0x00, 0x00, 0x00, 0x00, 0x00, 0x00, 0x00, 0x00, 0x20, 0x00, 0x00, 0x00,
    0x7f, 0xcd, 0xab, 0x3b, 0xa4, 0xb2, 0xec, 0x3b, 0x11, 0x44, 0x01, 0x3c,
    0xb3, 0x83, 0xe3, 0x3b, 0x43, 0x8b, 0x8f, 0x3c, 0xd3, 0x5f, 0xac, 0x3b,
    0xdf, 0xf0, 0x14, 0x3c, 0x1f, 0xca, 0xd3, 0x3b, 0x4c, 0xac, 0xa4, 0x3b,
    0x20, 0x21, 0x12, 0x3c, 0xbe, 0x7a, 0x69, 0x3d, 0xe6, 0x02, 0xa6, 0x3b,
    0x54, 0x0d, 0xf0, 0x3b, 0x1f, 0x3e, 0x8f, 0x3c, 0x85, 0x84, 0x2f, 0x3c,
    0x27, 0x98, 0x94, 0x3c, 0xdb, 0x4d, 0x54, 0x3c, 0x86, 0x6e, 0xa1, 0x3b,
    0x10, 0x8f, 0xaa, 0x3c, 0x02, 0xe1, 0x89, 0x3b, 0x70, 0xb9, 0xca, 0x3c,
    0xd9, 0x4a, 0xd6, 0x3c, 0x9a, 0x00, 0x1a, 0x3c, 0x6c, 0x37, 0x28, 0x3b,
    0x83, 0xf9, 0xa1, 0x3c, 0x1f, 0x76, 0xe8, 0x3b, 0x04, 0xd6, 0x78, 0x3c,
    0x70, 0x0f, 0x6c, 0x3c, 0xd7, 0xfc, 0xfd, 0x3b, 0x3b, 0xbb, 0xbc, 0x3b,
    0xcf, 0x96, 0xeb, 0x3b, 0x56, 0xed, 0xe5, 0x3b, 0x93, 0x00, 0x00, 0x00,
    0x73, 0x65, 0x71, 0x75, 0x65, 0x6e, 0x74, 0x69, 0x61, 0x6c, 0x5f, 0x31,
    0x2f, 0x62, 0x61, 0x74, 0x63, 0x68, 0x5f, 0x6e, 0x6f, 0x72, 0x6d, 0x61,
    0x6c, 0x69, 0x7a, 0x61, 0x74, 0x69, 0x6f, 0x6e, 0x5f, 0x33, 0x5f, 0x31,
    0x2f, 0x62, 0x61, 0x74, 0x63, 0x68, 0x6e, 0x6f, 0x72, 0x6d, 0x2f, 0x6d,
    0x75, 0x6c, 0x5f, 0x31, 0x3b, 0x73, 0x65, 0x71, 0x75, 0x65, 0x6e, 0x74,
    0x69, 0x61, 0x6c, 0x5f, 0x31, 0x2f, 0x64, 0x65, 0x70, 0x74, 0x68, 0x77,
    0x69, 0x73, 0x65, 0x5f, 0x63, 0x6f, 0x6e, 0x76, 0x32, 0x64, 0x5f, 0x31,
    0x5f, 0x32, 0x2f, 0x64, 0x65, 0x70, 0x74, 0x68, 0x77, 0x69, 0x73, 0x65,
    0x3b, 0x73, 0x65, 0x71, 0x75, 0x65, 0x6e, 0x74, 0x69, 0x61, 0x6c, 0x5f,
    0x31, 0x2f, 0x62, 0x61, 0x74, 0x63, 0x68, 0x5f, 0x6e, 0x6f, 0x72, 0x6d,
    0x61, 0x6c, 0x69, 0x7a, 0x61, 0x74, 0x69, 0x6f, 0x6e, 0x5f, 0x33, 0x5f,
    0x31, 0x2f, 0x62, 0x61, 0x74, 0x63, 0x68, 0x6e, 0x6f, 0x72, 0x6d, 0x2f,
    0x6d, 0x75, 0x6c, 0x00, 0x04, 0x00, 0x00, 0x00, 0x01, 0x00, 0x00, 0x00,
    0x03, 0x00, 0x00, 0x00, 0x03, 0x00, 0x00, 0x00, 0x20, 0x00, 0x00, 0x00,
    0xb2, 0xf7, 0xff, 0xff, 0x00, 0x00, 0x00, 0x01, 0x14, 0x00, 0x00, 0x00,
    0xa8, 0x01, 0x00, 0x00, 0x07, 0x00, 0x00, 0x00, 0x00, 0x00, 0x00, 0x02,
    0xb8, 0x02, 0x00, 0x00, 0xfc, 0xf6, 0xff, 0xff, 0x08, 0x00, 0x00, 0x00,
    0x0c, 0x01, 0x00, 0x00, 0x20, 0x00, 0x00, 0x00, 0x00, 0x00, 0x00, 0x00,
    0x00, 0x00, 0x00, 0x00, 0x00, 0x00, 0x00, 0x00, 0x00, 0x00, 0x00, 0x00,
    0x00, 0x00, 0x00, 0x00, 0x00, 0x00, 0x00, 0x00, 0x00, 0x00, 0x00, 0x00,
    0x00, 0x00, 0x00, 0x00, 0x00, 0x00, 0x00, 0x00, 0x00, 0x00, 0x00, 0x00,
    0x00, 0x00, 0x00, 0x00, 0x00, 0x00, 0x00, 0x00, 0x00, 0x00, 0x00, 0x00,
    0x00, 0x00, 0x00, 0x00, 0x00, 0x00, 0x00, 0x00, 0x00, 0x00, 0x00, 0x00,
    0x00, 0x00, 0x00, 0x00, 0x00, 0x00, 0x00, 0x00, 0x00, 0x00, 0x00, 0x00,
    0x00, 0x00, 0x00, 0x00, 0x00, 0x00, 0x00, 0x00, 0x00, 0x00, 0x00, 0x00,
    0x00, 0x00, 0x00, 0x00, 0x00, 0x00, 0x00, 0x00, 0x00, 0x00, 0x00, 0x00,
    0x00, 0x00, 0x00, 0x00, 0x00, 0x00, 0x00, 0x00, 0x00, 0x00, 0x00, 0x00,
    0x00, 0x00, 0x00, 0x00, 0x00, 0x00, 0x00, 0x00, 0x00, 0x00, 0x00, 0x00,
    0x00, 0x00, 0x00, 0x00, 0x00, 0x00, 0x00, 0x00, 0x00, 0x00, 0x00, 0x00,
    0x00, 0x00, 0x00, 0x00, 0x00, 0x00, 0x00, 0x00, 0x00, 0x00, 0x00, 0x00,
    0x00, 0x00, 0x00, 0x00, 0x00, 0x00, 0x00, 0x00, 0x00, 0x00, 0x00, 0x00,
    0x00, 0x00, 0x00, 0x00, 0x00, 0x00, 0x00, 0x00, 0x00, 0x00, 0x00, 0x00,
    0x00, 0x00, 0x00, 0x00, 0x00, 0x00, 0x00, 0x00, 0x00, 0x00, 0x00, 0x00,
    0x00, 0x00, 0x00, 0x00, 0x00, 0x00, 0x00, 0x00, 0x00, 0x00, 0x00, 0x00,
    0x00, 0x00, 0x00, 0x00, 0x00, 0x00, 0x00, 0x00, 0x00, 0x00, 0x00, 0x00,
    0x00, 0x00, 0x00, 0x00, 0x00, 0x00, 0x00, 0x00, 0x00, 0x00, 0x00, 0x00,
    0x00, 0x00, 0x00, 0x00, 0x00, 0x00, 0x00, 0x00, 0x00, 0x00, 0x00, 0x00,
    0x00, 0x00, 0x00, 0x00, 0x00, 0x00, 0x00, 0x00, 0x00, 0x00, 0x00, 0x00,
    0x00, 0x00, 0x00, 0x00, 0x00, 0x00, 0x00, 0x00, 0x00, 0x00, 0x00, 0x00,
    0x00, 0x00, 0x00, 0x00, 0x20, 0x00, 0x00, 0x00, 0x6b, 0x40, 0x75, 0x39,
    0x00, 0xf2, 0xa8, 0x39, 0x8d, 0x87, 0xb8, 0x39, 0xfe, 0x63, 0xa2, 0x39,
    0x6a, 0xe9, 0x4c, 0x3a, 0x4e, 0x11, 0x76, 0x39, 0xb0, 0x9d, 0xd4, 0x39,
    0xb3, 0x2a, 0x97, 0x39, 0xea, 0x12, 0x6b, 0x39, 0x3c, 0x9a, 0xd0, 0x39,
    0xef, 0xa5, 0x26, 0x3b, 0xfc, 0xfb, 0x6c, 0x39, 0xe5, 0x56, 0xab, 0x39,
    0x4b, 0x7b, 0x4c, 0x3a, 0x06, 0x8e, 0xfa, 0x39, 0x0a, 0x1f, 0x54, 0x3a,
    0xba, 0x88, 0x17, 0x3a, 0x65, 0x72, 0x66, 0x39, 0xda, 0x79, 0x73, 0x3a,
    0x26, 0xd3, 0x44, 0x39, 0x4a, 0xb2, 0x90, 0x3a, 0x06, 0xf4, 0x98, 0x3a,
    0x5e, 0xd7, 0xdb, 0x39, 0xda, 0x21, 0xf0, 0x38, 0xce, 0x38, 0x67, 0x3a,
    0xea, 0xeb, 0xa5, 0x39, 0xeb, 0x9b, 0x31, 0x3a, 0x83, 0x7d, 0x28, 0x3a,
    0x3e, 0x49, 0xb5, 0x39, 0x74, 0xb5, 0x86, 0x39, 0x69, 0x27, 0xa8, 0x39,
    0xd6, 0x1c, 0xa4, 0x39, 0x17, 0x01, 0x00, 0x00, 0x73, 0x65, 0x71, 0x75,
    0x65, 0x6e, 0x74, 0x69, 0x61, 0x6c, 0x5f, 0x31, 0x2f, 0x72, 0x65, 0x5f,
    0x6c, 0x75, 0x5f, 0x33, 0x5f, 0x31, 0x2f, 0x52, 0x65, 0x6c, 0x75, 0x3b,
    0x73, 0x65, 0x71, 0x75, 0x65, 0x6e, 0x74, 0x69, 0x61, 0x6c, 0x5f, 0x31,
    0x2f, 0x62, 0x61, 0x74, 0x63, 0x68, 0x5f, 0x6e, 0x6f, 0x72, 0x6d, 0x61,
    0x6c, 0x69, 0x7a, 0x61, 0x74, 0x69, 0x6f, 0x6e, 0x5f, 0x33, 0x5f, 0x31,
    0x2f, 0x62, 0x61, 0x74, 0x63, 0x68, 0x6e, 0x6f, 0x72, 0x6d, 0x2f, 0x61,
    0x64, 0x64, 0x5f, 0x31, 0x3b, 0x73, 0x65, 0x71, 0x75, 0x65, 0x6e, 0x74,
    0x69, 0x61, 0x6c, 0x5f, 0x31, 0x2f, 0x62, 0x61, 0x74, 0x63, 0x68, 0x5f,
    0x6e, 0x6f, 0x72, 0x6d, 0x61, 0x6c, 0x69, 0x7a, 0x61, 0x74, 0x69, 0x6f,
    0x6e, 0x5f, 0x33, 0x5f, 0x31, 0x2f, 0x62, 0x61, 0x74, 0x63, 0x68, 0x6e,
    0x6f, 0x72, 0x6d, 0x2f, 0x6d, 0x75, 0x6c, 0x5f, 0x31, 0x3b, 0x73, 0x65,
    0x71, 0x75, 0x65, 0x6e, 0x74, 0x69, 0x61, 0x6c, 0x5f, 0x31, 0x2f, 0x64,
    0x65, 0x70, 0x74, 0x68, 0x77, 0x69, 0x73, 0x65, 0x5f, 0x63, 0x6f, 0x6e,
    0x76, 0x32, 0x64, 0x5f, 0x31, 0x5f, 0x32, 0x2f, 0x64, 0x65, 0x70, 0x74,
    0x68, 0x77, 0x69, 0x73, 0x65, 0x3b, 0x73, 0x65, 0x71, 0x75, 0x65, 0x6e,
    0x74, 0x69, 0x61, 0x6c, 0x5f, 0x31, 0x2f, 0x62, 0x61, 0x74, 0x63, 0x68,
    0x5f, 0x6e, 0x6f, 0x72, 0x6d, 0x61, 0x6c, 0x69, 0x7a, 0x61, 0x74, 0x69,
    0x6f, 0x6e, 0x5f, 0x33, 0x5f, 0x31, 0x2f, 0x62, 0x61, 0x74, 0x63, 0x68,
    0x6e, 0x6f, 0x72, 0x6d, 0x2f, 0x6d, 0x75, 0x6c, 0x3b, 0x73, 0x65, 0x71,
    0x75, 0x65, 0x6e, 0x74, 0x69, 0x61, 0x6c, 0x5f, 0x31, 0x2f, 0x62, 0x61,
    0x74, 0x63, 0x68, 0x5f, 0x6e, 0x6f, 0x72, 0x6d, 0x61, 0x6c, 0x69, 0x7a,
    0x61, 0x74, 0x69, 0x6f, 0x6e, 0x5f, 0x33, 0x5f, 0x31, 0x2f, 0x62, 0x61,
    0x74, 0x63, 0x68, 0x6e, 0x6f, 0x72, 0x6d, 0x2f, 0x73, 0x75, 0x62, 0x00,
    0x01, 0x00, 0x00, 0x00, 0x20, 0x00, 0x00, 0x00, 0x8a, 0xfa, 0xff, 0xff,
    0x00, 0x00, 0x00, 0x01, 0x14, 0x00, 0x00, 0x00, 0xa8, 0x01, 0x00, 0x00,
    0x06, 0x00, 0x00, 0x00, 0x00, 0x00, 0x00, 0x09, 0xc4, 0x01, 0x00, 0x00,
    0xd4, 0xf9, 0xff, 0xff, 0x08, 0x00, 0x00, 0x00, 0x0c, 0x01, 0x00, 0x00,
    0x20, 0x00, 0x00, 0x00, 0x00, 0x00, 0x00, 0x00, 0x00, 0x00, 0x00, 0x00,
    0x00, 0x00, 0x00, 0x00, 0x00, 0x00, 0x00, 0x00, 0x00, 0x00, 0x00, 0x00,
    0x00, 0x00, 0x00, 0x00, 0x00, 0x00, 0x00, 0x00, 0x00, 0x00, 0x00, 0x00,
    0x00, 0x00, 0x00, 0x00, 0x00, 0x00, 0x00, 0x00, 0x00, 0x00, 0x00, 0x00,
    0x00, 0x00, 0x00, 0x00, 0x00, 0x00, 0x00, 0x00, 0x00, 0x00, 0x00, 0x00,
    0x00, 0x00, 0x00, 0x00, 0x00, 0x00, 0x00, 0x00, 0x00, 0x00, 0x00, 0x00,
    0x00, 0x00, 0x00, 0x00, 0x00, 0x00, 0x00, 0x00, 0x00, 0x00, 0x00, 0x00,
    0x00, 0x00, 0x00, 0x00, 0x00, 0x00, 0x00, 0x00, 0x00, 0x00, 0x00, 0x00,
    0x00, 0x00, 0x00, 0x00, 0x00, 0x00, 0x00, 0x00, 0x00, 0x00, 0x00, 0x00,
    0x00, 0x00, 0x00, 0x00, 0x00, 0x00, 0x00, 0x00, 0x00, 0x00, 0x00, 0x00,
    0x00, 0x00, 0x00, 0x00, 0x00, 0x00, 0x00, 0x00, 0x00, 0x00, 0x00, 0x00,
    0x00, 0x00, 0x00, 0x00, 0x00, 0x00, 0x00, 0x00, 0x00, 0x00, 0x00, 0x00,
    0x00, 0x00, 0x00, 0x00, 0x00, 0x00, 0x00, 0x00, 0x00, 0x00, 0x00, 0x00,
    0x00, 0x00, 0x00, 0x00, 0x00, 0x00, 0x00, 0x00, 0x00, 0x00, 0x00, 0x00,
    0x00, 0x00, 0x00, 0x00, 0x00, 0x00, 0x00, 0x00, 0x00, 0x00, 0x00, 0x00,
    0x00, 0x00, 0x00, 0x00, 0x00, 0x00, 0x00, 0x00, 0x00, 0x00, 0x00, 0x00,
    0x00, 0x00, 0x00, 0x00, 0x00, 0x00, 0x00, 0x00, 0x00, 0x00, 0x00, 0x00,
    0x00, 0x00, 0x00, 0x00, 0x00, 0x00, 0x00, 0x00, 0x00, 0x00, 0x00, 0x00,
    0x00, 0x00, 0x00, 0x00, 0x00, 0x00, 0x00, 0x00, 0x00, 0x00, 0x00, 0x00,
    0x00, 0x00, 0x00, 0x00, 0x00, 0x00, 0x00, 0x00, 0x00, 0x00, 0x00, 0x00,
    0x00, 0x00, 0x00, 0x00, 0x00, 0x00, 0x00, 0x00, 0x00, 0x00, 0x00, 0x00,
    0x00, 0x00, 0x00, 0x00, 0x00, 0x00, 0x00, 0x00, 0x00, 0x00, 0x00, 0x00,
    0x20, 0x00, 0x00, 0x00, 0xfb, 0x02, 0xcf, 0x3c, 0x1c, 0x4b, 0x45, 0x3c,
    0x9b, 0xaf, 0x7c, 0x3c, 0x58, 0x8b, 0x70, 0x3c, 0x36, 0xeb, 0x75, 0x3c,
    0xda, 0xea, 0x21, 0x3c, 0x8a, 0x7a, 0x97, 0x3c, 0x92, 0xf8, 0x87, 0x3c,
    0xa1, 0xf0, 0x87, 0x3c, 0x7d, 0xd3, 0xe4, 0x3c, 0x73, 0x8e, 0x3b, 0x3c,
    0xf3, 0x20, 0x2a, 0x3c, 0xea, 0x15, 0x4a, 0x3c, 0x5c, 0x7d, 0x7b, 0x3c,
    0x18, 0xae, 0x38, 0x3c, 0x85, 0x28, 0x86, 0x3c, 0x56, 0x53, 0x50, 0x3c,
    0xf7, 0x5c, 0xc4, 0x3c, 0x44, 0x9a, 0x33, 0x3c, 0x68, 0x8a, 0x9b, 0x3c,
    0x6a, 0xc7, 0x51, 0x3c, 0xaa, 0xfe, 0xd4, 0x3c, 0xd0, 0xa8, 0x39, 0x3c,
    0x77, 0xa9, 0xe0, 0x3c, 0x36, 0x0f, 0x93, 0x3c, 0x35, 0xf3, 0x66, 0x3c,
    0x0c, 0x0b, 0x81, 0x3c, 0x19, 0xa2, 0x85, 0x3c, 0x43, 0x4b, 0x78, 0x3c,
    0xda, 0xde, 0xa1, 0x3c, 0xef, 0xc2, 0x5e, 0x3c, 0xd1, 0x9a, 0x2d, 0x3c,
    0x23, 0x00, 0x00, 0x00, 0x73, 0x65, 0x71, 0x75, 0x65, 0x6e, 0x74, 0x69,
    0x61, 0x6c, 0x5f, 0x31, 0x2f, 0x63, 0x6f, 0x6e, 0x76, 0x32, 0x64, 0x5f,
    0x32, 0x5f, 0x31, 0x2f, 0x63, 0x6f, 0x6e, 0x76, 0x6f, 0x6c, 0x75, 0x74,
    0x69, 0x6f, 0x6e, 0x00, 0x04, 0x00, 0x00, 0x00, 0x20, 0x00, 0x00, 0x00,
    0x01, 0x00, 0x00, 0x00, 0x01, 0x00, 0x00, 0x00, 0x20, 0x00, 0x00, 0x00,
    0x7a, 0xfc, 0xff, 0xff, 0x00, 0x00, 0x00, 0x01, 0x14, 0x00, 0x00, 0x00,
    0xa8, 0x01, 0x00, 0x00, 0x05, 0x00, 0x00, 0x00, 0x00, 0x00, 0x00, 0x02,
    0x48, 0x02, 0x00, 0x00, 0xc4, 0xfb, 0xff, 0xff, 0x08, 0x00, 0x00, 0x00,
    0x0c, 0x01, 0x00, 0x00, 0x20, 0x00, 0x00, 0x00, 0x00, 0x00, 0x00, 0x00,
    0x00, 0x00, 0x00, 0x00, 0x00, 0x00, 0x00, 0x00, 0x00, 0x00, 0x00, 0x00,
    0x00, 0x00, 0x00, 0x00, 0x00, 0x00, 0x00, 0x00, 0x00, 0x00, 0x00, 0x00,
    0x00, 0x00, 0x00, 0x00, 0x00, 0x00, 0x00, 0x00, 0x00, 0x00, 0x00, 0x00,
    0x00, 0x00, 0x00, 0x00, 0x00, 0x00, 0x00, 0x00, 0x00, 0x00, 0x00, 0x00,
    0x00, 0x00, 0x00, 0x00, 0x00, 0x00, 0x00, 0x00, 0x00, 0x00, 0x00, 0x00,
    0x00, 0x00, 0x00, 0x00, 0x00, 0x00, 0x00, 0x00, 0x00, 0x00, 0x00, 0x00,
    0x00, 0x00, 0x00, 0x00, 0x00, 0x00, 0x00, 0x00, 0x00, 0x00, 0x00, 0x00,
    0x00, 0x00, 0x00, 0x00, 0x00, 0x00, 0x00, 0x00, 0x00, 0x00, 0x00, 0x00,
    0x00, 0x00, 0x00, 0x00, 0x00, 0x00, 0x00, 0x00, 0x00, 0x00, 0x00, 0x00,
    0x00, 0x00, 0x00, 0x00, 0x00, 0x00, 0x00, 0x00, 0x00, 0x00, 0x00, 0x00,
    0x00, 0x00, 0x00, 0x00, 0x00, 0x00, 0x00, 0x00, 0x00, 0x00, 0x00, 0x00,
    0x00, 0x00, 0x00, 0x00, 0x00, 0x00, 0x00, 0x00, 0x00, 0x00, 0x00, 0x00,
    0x00, 0x00, 0x00, 0x00, 0x00, 0x00, 0x00, 0x00, 0x00, 0x00, 0x00, 0x00,
    0x00, 0x00, 0x00, 0x00, 0x00, 0x00, 0x00, 0x00, 0x00, 0x00, 0x00, 0x00,
    0x00, 0x00, 0x00, 0x00, 0x00, 0x00, 0x00, 0x00, 0x00, 0x00, 0x00, 0x00,
    0x00, 0x00, 0x00, 0x00, 0x00, 0x00, 0x00, 0x00, 0x00, 0x00, 0x00, 0x00,
    0x00, 0x00, 0x00, 0x00, 0x00, 0x00, 0x00, 0x00, 0x00, 0x00, 0x00, 0x00,
    0x00, 0x00, 0x00, 0x00, 0x00, 0x00, 0x00, 0x00, 0x00, 0x00, 0x00, 0x00,
    0x00, 0x00, 0x00, 0x00, 0x00, 0x00, 0x00, 0x00, 0x00, 0x00, 0x00, 0x00,
    0x00, 0x00, 0x00, 0x00, 0x00, 0x00, 0x00, 0x00, 0x00, 0x00, 0x00, 0x00,
    0x00, 0x00, 0x00, 0x00, 0x00, 0x00, 0x00, 0x00, 0x00, 0x00, 0x00, 0x00,
    0x00, 0x00, 0x00, 0x00, 0x20, 0x00, 0x00, 0x00, 0xa2, 0x7f, 0x9e, 0x3a,
    0xcb, 0x0e, 0x17, 0x3a, 0x19, 0x78, 0x41, 0x3a, 0x42, 0x2c, 0x38, 0x3a,
    0xb0, 0x49, 0x3c, 0x3a, 0xbb, 0xf1, 0xf7, 0x39, 0x9e, 0xf5, 0x67, 0x3a,
    0x66, 0x36, 0x50, 0x3a, 0x3d, 0x2a, 0x50, 0x3a, 0x6a, 0x33, 0xaf, 0x3a,
    0x4a, 0x9a, 0x0f, 0x3a, 0x56, 0x42, 0x02, 0x3a, 0x19, 0xba, 0x1a, 0x3a,
    0x9f, 0x8d, 0x40, 0x3a, 0x7f, 0x66, 0x0d, 0x3a, 0xcc, 0x6f, 0x4d, 0x3a,
    0x2a, 0x81, 0x1f, 0x3a, 0x75, 0x58, 0x96, 0x3a, 0x48, 0x83, 0x09, 0x3a,
    0xf7, 0x2d, 0x6e, 0x3a, 0x0c, 0x9e, 0x20, 0x3a, 0x5e, 0x14, 0xa3, 0x3a,
    0x76, 0x26, 0x0e, 0x3a, 0x37, 0x03, 0xac, 0x3a, 0x36, 0x31, 0x61, 0x3a,
    0xb7, 0xd3, 0x30, 0x3a, 0x9a, 0x9a, 0x45, 0x3a, 0xf5, 0xa1, 0x4c, 0x3a,
    0x3e, 0x1b, 0x3e, 0x3a, 0x5b, 0xdf, 0x77, 0x3a, 0xb3, 0x8e, 0x2a, 0x3a,
    0xaa, 0xeb, 0x04, 0x3a, 0xa7, 0x00, 0x00, 0x00, 0x73, 0x65, 0x71, 0x75,
    0x65, 0x6e, 0x74, 0x69, 0x61, 0x6c, 0x5f, 0x31, 0x2f, 0x72, 0x65, 0x5f,
    0x6c, 0x75, 0x5f, 0x34, 0x5f, 0x31, 0x2f, 0x52, 0x65, 0x6c, 0x75, 0x3b,
    0x73, 0x65, 0x71, 0x75, 0x65, 0x6e, 0x74, 0x69, 0x61, 0x6c, 0x5f, 0x31,
    0x2f, 0x62, 0x61, 0x74, 0x63, 0x68, 0x5f, 0x6e, 0x6f, 0x72, 0x6d, 0x61,
    0x6c, 0x69, 0x7a, 0x61, 0x74, 0x69, 0x6f, 0x6e, 0x5f, 0x34, 0x5f, 0x31,
    0x2f, 0x62, 0x61, 0x74, 0x63, 0x68, 0x6e, 0x6f, 0x72, 0x6d, 0x2f, 0x61,
    0x64, 0x64, 0x5f, 0x31, 0x3b, 0x73, 0x65, 0x71, 0x75, 0x65, 0x6e, 0x74,
    0x69, 0x61, 0x6c, 0x5f, 0x31, 0x2f, 0x63, 0x6f, 0x6e, 0x76, 0x32, 0x64,
    0x5f, 0x32, 0x5f, 0x31, 0x2f, 0x63, 0x6f, 0x6e, 0x76, 0x6f, 0x6c, 0x75,
    0x74, 0x69, 0x6f, 0x6e, 0x3b, 0x73, 0x65, 0x71, 0x75, 0x65, 0x6e, 0x74,
    0x69, 0x61, 0x6c, 0x5f, 0x31, 0x2f, 0x62, 0x61, 0x74, 0x63, 0x68, 0x5f,
    0x6e, 0x6f, 0x72, 0x6d, 0x61, 0x6c, 0x69, 0x7a, 0x61, 0x74, 0x69, 0x6f,
    0x6e, 0x5f, 0x34, 0x5f, 0x31, 0x2f, 0x62, 0x61, 0x74, 0x63, 0x68, 0x6e,
    0x6f, 0x72, 0x6d, 0x2f, 0x73, 0x75, 0x62, 0x00, 0x01, 0x00, 0x00, 0x00,
    0x20, 0x00, 0x00, 0x00, 0xe2, 0xfe, 0xff, 0xff, 0x00, 0x00, 0x00, 0x01,
    0x14, 0x00, 0x00, 0x00, 0x58, 0x00, 0x00, 0x00, 0x04, 0x00, 0x00, 0x00,
    0x00, 0x00, 0x00, 0x09, 0x6c, 0x00, 0x00, 0x00, 0x2c, 0xfe, 0xff, 0xff,
    0x08, 0x00, 0x00, 0x00, 0x2c, 0x00, 0x00, 0x00, 0x04, 0x00, 0x00, 0x00,
    0x00, 0x00, 0x00, 0x00, 0x00, 0x00, 0x00, 0x00, 0x00, 0x00, 0x00, 0x00,
    0x00, 0x00, 0x00, 0x00, 0x00, 0x00, 0x00, 0x00, 0x00, 0x00, 0x00, 0x00,
    0x00, 0x00, 0x00, 0x00, 0x00, 0x00, 0x00, 0x00, 0x00, 0x00, 0x00, 0x00,
    0x04, 0x00, 0x00, 0x00, 0x3b, 0xa5, 0x5c, 0x3c, 0x83, 0xdf, 0x56, 0x3c,
    0xda, 0xd4, 0xfe, 0x3b, 0x8e, 0x25, 0x09, 0x3c, 0x1b, 0x00, 0x00, 0x00,
    0x73, 0x65, 0x71, 0x75, 0x65, 0x6e, 0x74, 0x69, 0x61, 0x6c, 0x5f, 0x31,
    0x2f, 0x64, 0x65, 0x6e, 0x73, 0x65, 0x5f, 0x31, 0x2f, 0x4d, 0x61, 0x74,
    0x4d, 0x75, 0x6c, 0x00, 0x02, 0x00, 0x00, 0x00, 0x04, 0x00, 0x00, 0x00,
    0x20, 0x00, 0x00, 0x00, 0x72, 0xff, 0xff, 0xff, 0x00, 0x00, 0x00, 0x01,
    0x14, 0x00, 0x00, 0x00, 0x54, 0x00, 0x00, 0x00, 0x03, 0x00, 0x00, 0x00,
    0x00, 0x00, 0x00, 0x02, 0x6c, 0x00, 0x00, 0x00, 0xbc, 0xfe, 0xff, 0xff,
    0x08, 0x00, 0x00, 0x00, 0x28, 0x00, 0x00, 0x00, 0x04, 0x00, 0x00, 0x00,
    0x00, 0x00, 0x00, 0x00, 0x00, 0x00, 0x00, 0x00, 0x00, 0x00, 0x00, 0x00,
    0x00, 0x00, 0x00, 0x00, 0x00, 0x00, 0x00, 0x00, 0x00, 0x00, 0x00, 0x00,
    0x00, 0x00, 0x00, 0x00, 0x00, 0x00, 0x00, 0x00, 0x04, 0x00, 0x00, 0x00,
    0x37, 0x6b, 0x4c, 0x39, 0x2b, 0x12, 0x47, 0x39, 0x3a, 0x17, 0xec, 0x38,
    0x15, 0x1f, 0xfe, 0x38, 0x1c, 0x00, 0x00, 0x00, 0x73, 0x65, 0x71, 0x75,
    0x65, 0x6e, 0x74, 0x69, 0x61, 0x6c, 0x5f, 0x31, 0x2f, 0x64, 0x65, 0x6e,
    0x73, 0x65, 0x5f, 0x31, 0x2f, 0x42, 0x69, 0x61, 0x73, 0x41, 0x64, 0x64,
    0x00, 0x00, 0x00, 0x00, 0x01, 0x00, 0x00, 0x00, 0x04, 0x00, 0x00, 0x00,
    0x00, 0x00, 0x16, 0x00, 0x1c, 0x00, 0x18, 0x00, 0x17, 0x00, 0x10, 0x00,
    0x0c, 0x00, 0x08, 0x00, 0x00, 0x00, 0x00, 0x00, 0x00, 0x00, 0x07, 0x00,
    0x16, 0x00, 0x00, 0x00, 0x00, 0x00, 0x00, 0x01, 0x18, 0x00, 0x00, 0x00,
    0x18, 0x00, 0x00, 0x00, 0x02, 0x00, 0x00, 0x00, 0x00, 0x00, 0x00, 0x02,
    0x50, 0x00, 0x00, 0x00, 0x04, 0x00, 0x04, 0x00, 0x04, 0x00, 0x00, 0x00,
    0x3e, 0x00, 0x00, 0x00, 0x73, 0x65, 0x71, 0x75, 0x65, 0x6e, 0x74, 0x69,
    0x61, 0x6c, 0x5f, 0x31, 0x2f, 0x67, 0x6c, 0x6f, 0x62, 0x61, 0x6c, 0x5f,
    0x61, 0x76, 0x65, 0x72, 0x61, 0x67, 0x65, 0x5f, 0x70, 0x6f, 0x6f, 0x6c,
    0x69, 0x6e, 0x67, 0x32, 0x64, 0x5f, 0x31, 0x2f, 0x4d, 0x65, 0x61, 0x6e,
    0x2f, 0x72, 0x65, 0x64, 0x75, 0x63, 0x74, 0x69, 0x6f, 0x6e, 0x5f, 0x69,
    0x6e, 0x64, 0x69, 0x63, 0x65, 0x73, 0x00, 0x00, 0x01, 0x00, 0x00, 0x00,
    0x02, 0x00, 0x00, 0x00, 0x00, 0x00, 0x16, 0x00, 0x20, 0x00, 0x1c, 0x00,
    0x1b, 0x00, 0x14, 0x00, 0x10, 0x00, 0x0c, 0x00, 0x00, 0x00, 0x00, 0x00,
    0x08, 0x00, 0x07, 0x00, 0x16, 0x00, 0x00, 0x00, 0x00, 0x00, 0x00, 0x01,
    0x18, 0x00, 0x00, 0x00, 0x34, 0x00, 0x00, 0x00, 0x54, 0x00, 0x00, 0x00,
    0x01, 0x00, 0x00, 0x00, 0x00, 0x00, 0x00, 0x09, 0x6c, 0x00, 0x00, 0x00,
    0x04, 0x00, 0x00, 0x00, 0xff, 0xff, 0xff, 0xff, 0x40, 0x00, 0x00, 0x00,
    0x40, 0x00, 0x00, 0x00, 0x01, 0x00, 0x00, 0x00, 0x0c, 0x00, 0x0c, 0x00,
    0x00, 0x00, 0x00, 0x00, 0x08, 0x00, 0x04, 0x00, 0x0c, 0x00, 0x00, 0x00,
    0x08, 0x00, 0x00, 0x00, 0x14, 0x00, 0x00, 0x00, 0x01, 0x00, 0x00, 0x00,
    0x80, 0xff, 0xff, 0xff, 0xff, 0xff, 0xff, 0xff, 0x00, 0x00, 0x00, 0x00,
    0x01, 0x00, 0x00, 0x00, 0x81, 0x80, 0x80, 0x3b, 0x1d, 0x00, 0x00, 0x00,
    0x73, 0x65, 0x72, 0x76, 0x69, 0x6e, 0x67, 0x5f, 0x64, 0x65, 0x66, 0x61,
    0x75, 0x6c, 0x74, 0x5f, 0x69, 0x6e, 0x70, 0x75, 0x74, 0x5f, 0x6c, 0x61,
    0x79, 0x65, 0x72, 0x3a, 0x30, 0x00, 0x00, 0x00, 0x04, 0x00, 0x00, 0x00,
    0x01, 0x00, 0x00, 0x00, 0x40, 0x00, 0x00, 0x00, 0x40, 0x00, 0x00, 0x00,
    0x01, 0x00, 0x00, 0x00, 0x05, 0x00, 0x00, 0x00, 0x60, 0x00, 0x00, 0x00,
    0x40, 0x00, 0x00, 0x00, 0x2c, 0x00, 0x00, 0x00, 0x18, 0x00, 0x00, 0x00,
    0x04, 0x00, 0x00, 0x00, 0xc0, 0xff, 0xff, 0xff, 0x19, 0x00, 0x00, 0x00,
    0x02, 0x00, 0x00, 0x00, 0x00, 0x00, 0x00, 0x19, 0xd0, 0xff, 0xff, 0xff,
    0x09, 0x00, 0x00, 0x00, 0x04, 0x00, 0x00, 0x00, 0x00, 0x00, 0x00, 0x09,
    0xe0, 0xff, 0xff, 0xff, 0x28, 0x00, 0x00, 0x00, 0x02, 0x00, 0x00, 0x00,
    0x00, 0x00, 0x00, 0x28, 0xf0, 0xff, 0xff, 0xff, 0x04, 0x00, 0x00, 0x00,
    0x03, 0x00, 0x00, 0x00, 0x00, 0x00, 0x00, 0x04, 0x0c, 0x00, 0x10, 0x00,
    0x0f, 0x00, 0x00, 0x00, 0x08, 0x00, 0x04, 0x00, 0x0c, 0x00, 0x00, 0x00,
    0x03, 0x00, 0x00, 0x00, 0x03, 0x00, 0x00, 0x00, 0x00, 0x00, 0x00, 0x03
};

#ifdef __cplusplus
}
#endif

#endif // TRANSIENT_MODEL_DATA_H
