// Auto-generated from transient_cnn_int8.tflite
// Model size: 12,288 bytes (12.0 KB)
// Input:  64x64x1 INT8 (4096 bytes)
// Output: 4 classes [transient, starfield, bright_source, earth_limb]
//
// DO NOT EDIT — regenerate with: python3 export_to_c.py

#ifndef TRANSIENT_MODEL_DATA_H
#define TRANSIENT_MODEL_DATA_H

#ifdef __cplusplus
extern "C" {
#endif

// Number of bytes in the model
const unsigned int g_model_data_len = 12288;

// Model data aligned for efficient memory access
const unsigned char g_model_data[] __attribute__((aligned(4))) = {
    0x1c, 0x00, 0x00, 0x00, 0x54, 0x46, 0x4c, 0x33, 0x14, 0x00, 0x20, 0x00,
    0x1c, 0x00, 0x18, 0x00, 0x14, 0x00, 0x10, 0x00, 0x0c, 0x00, 0x00, 0x00,
    0x08, 0x00, 0x04, 0x00, 0x14, 0x00, 0x00, 0x00, 0x1c, 0x00, 0x00, 0x00,
    0x94, 0x00, 0x00, 0x00, 0xec, 0x00, 0x00, 0x00, 0x74, 0x0d, 0x00, 0x00,
    0x84, 0x0d, 0x00, 0x00, 0x58, 0x2f, 0x00, 0x00, 0x03, 0x00, 0x00, 0x00,
    0x01, 0x00, 0x00, 0x00, 0x10, 0x00, 0x00, 0x00, 0x00, 0x00, 0x0a, 0x00,
    0x10, 0x00, 0x0c, 0x00, 0x08, 0x00, 0x04, 0x00, 0x0a, 0x00, 0x00, 0x00,
    0x0c, 0x00, 0x00, 0x00, 0x1c, 0x00, 0x00, 0x00, 0x3c, 0x00, 0x00, 0x00,
    0x0f, 0x00, 0x00, 0x00, 0x73, 0x65, 0x72, 0x76, 0x69, 0x6e, 0x67, 0x5f,
    0x64, 0x65, 0x66, 0x61, 0x75, 0x6c, 0x74, 0x00, 0x01, 0x00, 0x00, 0x00,
    0x04, 0x00, 0x00, 0x00, 0x94, 0xff, 0xff, 0xff, 0x15, 0x00, 0x00, 0x00,
    0x04, 0x00, 0x00, 0x00, 0x08, 0x00, 0x00, 0x00, 0x6f, 0x75, 0x74, 0x70,
    0x75, 0x74, 0x5f, 0x30, 0x00, 0x00, 0x00, 0x00, 0x01, 0x00, 0x00, 0x00,
    0x04, 0x00, 0x00, 0x00, 0x72, 0xf2, 0xff, 0xff, 0x04, 0x00, 0x00, 0x00,
    0x0b, 0x00, 0x00, 0x00, 0x69, 0x6e, 0x70, 0x75, 0x74, 0x5f, 0x6c, 0x61,
    0x79, 0x65, 0x72, 0x00, 0x02, 0x00, 0x00, 0x00, 0x34, 0x00, 0x00, 0x00,
    0x04, 0x00, 0x00, 0x00, 0xdc, 0xff, 0xff, 0xff, 0x18, 0x00, 0x00, 0x00,
    0x04, 0x00, 0x00, 0x00, 0x13, 0x00, 0x00, 0x00, 0x43, 0x4f, 0x4e, 0x56,
    0x45, 0x52, 0x53, 0x49, 0x4f, 0x4e, 0x5f, 0x4d, 0x45, 0x54, 0x41, 0x44,
    0x41, 0x54, 0x41, 0x00, 0x08, 0x00, 0x0c, 0x00, 0x08, 0x00, 0x04, 0x00,
    0x08, 0x00, 0x00, 0x00, 0x17, 0x00, 0x00, 0x00, 0x04, 0x00, 0x00, 0x00,
    0x13, 0x00, 0x00, 0x00, 0x6d, 0x69, 0x6e, 0x5f, 0x72, 0x75, 0x6e, 0x74,
    0x69, 0x6d, 0x65, 0x5f, 0x76, 0x65, 0x72, 0x73, 0x69, 0x6f, 0x6e, 0x00,
    0x19, 0x00, 0x00, 0x00, 0x84, 0x0c, 0x00, 0x00, 0x7c, 0x0c, 0x00, 0x00,
    0x64, 0x0c, 0x00, 0x00, 0x44, 0x0c, 0x00, 0x00, 0xb4, 0x0b, 0x00, 0x00,
    0x24, 0x0b, 0x00, 0x00, 0x14, 0x07, 0x00, 0x00, 0x84, 0x06, 0x00, 0x00,
    0x54, 0x05, 0x00, 0x00, 0xc4, 0x04, 0x00, 0x00, 0xb4, 0x02, 0x00, 0x00,
    0x64, 0x02, 0x00, 0x00, 0xc4, 0x01, 0x00, 0x00, 0x74, 0x01, 0x00, 0x00,
    0xd4, 0x00, 0x00, 0x00, 0xcc, 0x00, 0x00, 0x00, 0xc4, 0x00, 0x00, 0x00,
    0xbc, 0x00, 0x00, 0x00, 0xb4, 0x00, 0x00, 0x00, 0xac, 0x00, 0x00, 0x00,
    0xa4, 0x00, 0x00, 0x00, 0x9c, 0x00, 0x00, 0x00, 0x94, 0x00, 0x00, 0x00,
    0x74, 0x00, 0x00, 0x00, 0x04, 0x00, 0x00, 0x00, 0x4e, 0xf3, 0xff, 0xff,
    0x04, 0x00, 0x00, 0x00, 0x60, 0x00, 0x00, 0x00, 0x0c, 0x00, 0x00, 0x00,
    0x08, 0x00, 0x0e, 0x00, 0x08, 0x00, 0x04, 0x00, 0x08, 0x00, 0x00, 0x00,
    0x10, 0x00, 0x00, 0x00, 0x28, 0x00, 0x00, 0x00, 0x00, 0x00, 0x06, 0x00,
    0x08, 0x00, 0x04, 0x00, 0x06, 0x00, 0x00, 0x00, 0x04, 0x00, 0x00, 0x00,
    0x01, 0x00, 0x00, 0x00, 0xeb, 0x03, 0x00, 0x00, 0x0c, 0x00, 0x18, 0x00,
    0x14, 0x00, 0x10, 0x00, 0x0c, 0x00, 0x04, 0x00, 0x0c, 0x00, 0x00, 0x00,
    0xb9, 0xf9, 0xb6, 0x36, 0x57, 0x74, 0x9f, 0xd9, 0x02, 0x00, 0x00, 0x00,
    0x02, 0x00, 0x00, 0x00, 0x04, 0x00, 0x00, 0x00, 0x06, 0x00, 0x00, 0x00,
    0x32, 0x2e, 0x32, 0x31, 0x2e, 0x30, 0x00, 0x00, 0xba, 0xf3, 0xff, 0xff,
    0x04, 0x00, 0x00, 0x00, 0x10, 0x00, 0x00, 0x00, 0x31, 0x2e, 0x31, 0x34,
    0x2e, 0x30, 0x00, 0x00, 0x00, 0x00, 0x00, 0x00, 0x00, 0x00, 0x00, 0x00,
    0x80, 0xd3, 0xff, 0xff, 0x84, 0xd3, 0xff, 0xff, 0x88, 0xd3, 0xff, 0xff,
    0x8c, 0xd3, 0xff, 0xff, 0x90, 0xd3, 0xff, 0xff, 0x94, 0xd3, 0xff, 0xff,
    0x98, 0xd3, 0xff, 0xff, 0x9c, 0xd3, 0xff, 0xff, 0xf6, 0xf3, 0xff, 0xff,
    0x04, 0x00, 0x00, 0x00, 0x90, 0x00, 0x00, 0x00, 0x38, 0x7f, 0x54, 0x5b,
    0x31, 0x32, 0x08, 0x30, 0xee, 0xd2, 0x8f, 0x28, 0x52, 0x81, 0xf8, 0xb0,
    0x94, 0x38, 0x0e, 0xfd, 0x03, 0x81, 0x11, 0x09, 0x17, 0x02, 0xfd, 0x32,
    0x25, 0x0d, 0x2b, 0x2c, 0x5c, 0x21, 0x46, 0x7f, 0xc5, 0x81, 0xa5, 0x14,
    0xc1, 0xb5, 0x30, 0x17, 0x35, 0x81, 0xc4, 0x0d, 0x91, 0x14, 0x5a, 0xfd,
    0x52, 0x5c, 0xa2, 0xa7, 0xf0, 0xad, 0xff, 0x71, 0x1f, 0x7f, 0x6f, 0x39,
    0x4b, 0x28, 0x3d, 0x7f, 0x2c, 0x32, 0x59, 0x31, 0x7f, 0x3b, 0x0a, 0x54,
    0x20, 0x0a, 0x1f, 0xe4, 0xdd, 0x1d, 0x52, 0x32, 0x30, 0x42, 0xea, 0x14,
    0xce, 0x81, 0x7f, 0xfc, 0xaf, 0x70, 0x28, 0x85, 0x4d, 0x0e, 0x98, 0xfe,
    0xe2, 0xf5, 0x91, 0xdb, 0x0c, 0xe4, 0x83, 0x81, 0xda, 0x22, 0x3b, 0x83,
    0xe6, 0x16, 0x81, 0xef, 0x0f, 0x47, 0x5e, 0x20, 0x5f, 0x73, 0x4b, 0x36,
    0x7f, 0x31, 0xf4, 0x81, 0x89, 0x40, 0xc2, 0x9e, 0x54, 0x12, 0xac, 0x81,
    0x48, 0xf5, 0x1e, 0xb4, 0x38, 0x38, 0x06, 0x03, 0x92, 0xf4, 0xff, 0xff,
    0x04, 0x00, 0x00, 0x00, 0x40, 0x00, 0x00, 0x00, 0x99, 0xd9, 0xff, 0xff,
    0x12, 0x18, 0x00, 0x00, 0x00, 0xfd, 0xff, 0xff, 0xd9, 0xfb, 0xff, 0xff,
    0x06, 0x59, 0x00, 0x00, 0x58, 0xff, 0xff, 0xff, 0x83, 0xfd, 0xff, 0xff,
    0xec, 0xf5, 0xff, 0xff, 0xda, 0xd9, 0xff, 0xff, 0x01, 0xe9, 0xff, 0xff,
    0x9f, 0xdd, 0xff, 0xff, 0x96, 0x5f, 0x00, 0x00, 0x26, 0x07, 0x00, 0x00,
    0x18, 0xa0, 0xff, 0xff, 0xf5, 0x10, 0x00, 0x00, 0x07, 0xf7, 0xff, 0xff,
    0xde, 0xf4, 0xff, 0xff, 0x04, 0x00, 0x00, 0x00, 0x90, 0x00, 0x00, 0x00,
    0x10, 0x7f, 0x3b, 0xc9, 0xa2, 0xba, 0x98, 0x81, 0x7f, 0x2b, 0x9a, 0x8e,
    0xfb, 0x3c, 0x1d, 0x5d, 0x81, 0x09, 0x42, 0xc2, 0xde, 0xcc, 0x81, 0xcc,
    0x3e, 0xaf, 0x81, 0xc0, 0x32, 0x30, 0x33, 0x5c, 0xc3, 0xcb, 0x3d, 0x00,
    0x59, 0xe9, 0xfb, 0xcf, 0x39, 0x99, 0xc1, 0xdf, 0x23, 0xe1, 0x1b, 0xa8,
    0xd6, 0xea, 0x3e, 0xc7, 0xf4, 0xc3, 0x00, 0xf7, 0x24, 0xbe, 0x9b, 0x05,
    0x2a, 0x2d, 0x2e, 0x6d, 0x07, 0x2a, 0x7f, 0x2f, 0xb5, 0x9b, 0x07, 0x26,
    0x05, 0x88, 0x99, 0xf0, 0x2f, 0x1b, 0x30, 0x7f, 0x22, 0x28, 0x5b, 0x55,
    0x6a, 0x94, 0x14, 0x3d, 0x0a, 0x15, 0xd6, 0xfe, 0xb5, 0x06, 0x81, 0x0c,
    0xd8, 0xcf, 0x22, 0xfa, 0x7f, 0xb3, 0x04, 0x04, 0x0a, 0xd6, 0xe6, 0x6a,
    0x2f, 0xf7, 0xc1, 0xe6, 0x38, 0x01, 0x57, 0x52, 0x0b, 0x81, 0x1b, 0x3f,
    0x18, 0x33, 0xed, 0x7f, 0x11, 0xdd, 0xfb, 0x1e, 0x26, 0x9e, 0x34, 0x7f,
    0x28, 0x9c, 0x1c, 0x60, 0x10, 0x7f, 0xe6, 0x28, 0x81, 0x81, 0xf4, 0x4b,
    0x7a, 0xf5, 0xff, 0xff, 0x04, 0x00, 0x00, 0x00, 0x40, 0x00, 0x00, 0x00,
    0xda, 0x06, 0x00, 0x00, 0xa6, 0xff, 0xff, 0xff, 0x19, 0x00, 0x00, 0x00,
    0x90, 0xfb, 0xff, 0xff, 0x52, 0xf4, 0xff, 0xff, 0x55, 0x19, 0x00, 0x00,
    0x00, 0x05, 0x00, 0x00, 0xc6, 0xfe, 0xff, 0xff, 0xa6, 0xf2, 0xff, 0xff,
    0x38, 0x01, 0x00, 0x00, 0xe6, 0x0b, 0x00, 0x00, 0xdc, 0xfb, 0xff, 0xff,
    0xaf, 0xff, 0xff, 0xff, 0x10, 0x00, 0x00, 0x00, 0xeb, 0xff, 0xff, 0xff,
    0x2c, 0xfb, 0xff, 0xff, 0xc6, 0xf5, 0xff, 0xff, 0x04, 0x00, 0x00, 0x00,
    0x00, 0x02, 0x00, 0x00, 0xd8, 0xdd, 0xd6, 0x5a, 0xdb, 0xc4, 0x02, 0x01,
    0xc8, 0x03, 0x7f, 0x1a, 0x10, 0x2c, 0xdf, 0xfa, 0x2f, 0x11, 0xde, 0x4c,
    0x56, 0x05, 0xcd, 0x7f, 0xb3, 0xec, 0x1e, 0x55, 0x44, 0xe8, 0x3b, 0xe8,
    0xa5, 0x03, 0xf6, 0x41, 0xc3, 0xfc, 0xf7, 0x1f, 0x3b, 0xec, 0x23, 0xd0,
    0x81, 0x03, 0xde, 0x07, 0x2f, 0x40, 0x3e, 0x81, 0xfe, 0x47, 0xb0, 0x9a,
    0xfe, 0x36, 0x3d, 0xf7, 0xbe, 0x84, 0xbf, 0x6a, 0x25, 0x47, 0xf5, 0xc2,
    0x11, 0x11, 0xab, 0xc2, 0x2a, 0x0a, 0xe5, 0x1d, 0xe0, 0x81, 0xe3, 0x64,
    0xd5, 0xe5, 0xfc, 0x35, 0xb9, 0x19, 0xf1, 0xfc, 0x56, 0x03, 0xf6, 0xce,
    0xb3, 0x22, 0x81, 0xfd, 0xd4, 0xe8, 0xf0, 0x10, 0x33, 0x14, 0xf3, 0xb8,
    0xf0, 0xc9, 0x81, 0x4e, 0xe9, 0x45, 0xec, 0x04, 0x29, 0x10, 0xe9, 0x17,
    0xe9, 0x17, 0xc3, 0x0e, 0x04, 0xdc, 0x28, 0xbd, 0xde, 0x81, 0x07, 0x04,
    0xd6, 0x2b, 0x2a, 0x00, 0xd4, 0x9d, 0xa9, 0x5f, 0x88, 0xa1, 0x56, 0x76,
    0xd9, 0x81, 0x87, 0x12, 0x3a, 0x03, 0x03, 0x81, 0x07, 0x09, 0x2b, 0x12,
    0xd3, 0x2b, 0x0b, 0x17, 0x22, 0xf6, 0x21, 0xed, 0x7c, 0xf8, 0xd7, 0xeb,
    0xfe, 0xd0, 0x0b, 0xf2, 0x81, 0x43, 0xee, 0x32, 0x22, 0x30, 0x14, 0xc7,
    0x52, 0x18, 0x7a, 0x81, 0x07, 0xce, 0xe7, 0xbe, 0x8b, 0x32, 0x13, 0x0b,
    0xf4, 0xc8, 0x09, 0x59, 0xa4, 0x89, 0x0f, 0x18, 0xea, 0x47, 0x66, 0x08,
    0xf6, 0x35, 0xab, 0x9f, 0xe5, 0x7f, 0xd9, 0xc7, 0xc8, 0x44, 0x0f, 0x14,
    0x5a, 0xd8, 0x2d, 0xf1, 0xff, 0x26, 0x81, 0xee, 0x23, 0xb4, 0x3b, 0x11,
    0x1a, 0x18, 0xe4, 0xe8, 0x05, 0xf0, 0xc4, 0xbb, 0xee, 0x1e, 0x61, 0x0b,
    0x2e, 0x81, 0x22, 0x14, 0x19, 0xfd, 0x00, 0xee, 0x95, 0xbd, 0xc4, 0x0f,
    0x7f, 0xf2, 0xf1, 0x98, 0xcd, 0x25, 0xbf, 0x0c, 0x4a, 0x09, 0x37, 0x0f,
    0x7f, 0x3f, 0x26, 0x42, 0x14, 0xf0, 0x1e, 0x10, 0x36, 0x7d, 0xf9, 0x07,
    0x8b, 0xc8, 0x0b, 0x81, 0xbf, 0x32, 0x26, 0xd4, 0xff, 0xc2, 0xd1, 0xde,
    0xe7, 0x14, 0x04, 0x0b, 0xf7, 0x90, 0xd3, 0xae, 0xc0, 0x81, 0x4f, 0xfc,
    0xfb, 0xba, 0xe3, 0xef, 0xb3, 0x31, 0xaf, 0xee, 0x81, 0xf2, 0x12, 0xaa,
    0x27, 0x30, 0x12, 0xaa, 0x92, 0xbc, 0x37, 0x77, 0x16, 0xdf, 0xe5, 0xf0,
    0x13, 0x3b, 0xfb, 0xac, 0x40, 0x12, 0x24, 0xac, 0x4c, 0x81, 0x37, 0xdf,
    0x0c, 0x38, 0x9a, 0xd7, 0x47, 0x10, 0x05, 0x81, 0x25, 0x4c, 0x19, 0x53,
    0x9f, 0xd6, 0x0e, 0x03, 0x0d, 0xcb, 0x24, 0xfa, 0xc8, 0x04, 0x5b, 0xc3,
    0x65, 0x31, 0x19, 0x41, 0x01, 0x74, 0xc8, 0x7f, 0xfe, 0x11, 0x10, 0x1e,
    0xd9, 0x81, 0xb7, 0x2b, 0x58, 0xd9, 0xd3, 0x33, 0xe8, 0xac, 0x91, 0x7f,
    0x02, 0x3c, 0x0b, 0x96, 0x66, 0xdc, 0x3b, 0x0f, 0x39, 0xb8, 0x58, 0xa5,
    0xbb, 0xc5, 0xeb, 0x63, 0x57, 0xeb, 0x7f, 0x0a, 0xbd, 0xb5, 0x34, 0x19,
    0x96, 0x05, 0xc8, 0x04, 0x4b, 0xe0, 0xfd, 0xf1, 0xbf, 0x07, 0x81, 0x2b,
    0xd5, 0x81, 0x09, 0xc5, 0x05, 0x38, 0x16, 0xe6, 0x1b, 0x08, 0xed, 0x06,
    0x8c, 0x1c, 0x96, 0x03, 0xde, 0xe8, 0xf6, 0x08, 0x1a, 0x3b, 0x50, 0xd4,
    0xe4, 0xe8, 0x81, 0x41, 0xf6, 0x60, 0xc8, 0xca, 0x0f, 0x08, 0x7f, 0xa6,
    0x03, 0xed, 0x1a, 0x32, 0x03, 0xff, 0x3f, 0x27, 0x1c, 0x30, 0x04, 0x4c,
    0x0a, 0x31, 0x7f, 0xf1, 0x30, 0xa9, 0x17, 0xf0, 0x94, 0x0c, 0x1e, 0x21,
    0x3d, 0x0a, 0x39, 0x57, 0x35, 0x12, 0xfe, 0xc9, 0xfb, 0xf4, 0x21, 0x8a,
    0x5a, 0xba, 0x81, 0x0a, 0xab, 0x52, 0x0b, 0xe3, 0x1c, 0x09, 0xfc, 0xe3,
    0xbd, 0xc8, 0xea, 0xbb, 0x39, 0xd3, 0xb9, 0x81, 0xe6, 0xb8, 0xda, 0x0b,
    0xd2, 0xf7, 0xff, 0xff, 0x04, 0x00, 0x00, 0x00, 0x80, 0x00, 0x00, 0x00,
    0x32, 0xfc, 0xff, 0xff, 0x91, 0xfb, 0xff, 0xff, 0x40, 0x02, 0x00, 0x00,
    0xaa, 0x01, 0x00, 0x00, 0x06, 0x01, 0x00, 0x00, 0x10, 0x03, 0x00, 0x00,
    0x32, 0x02, 0x00, 0x00, 0xce, 0x05, 0x00, 0x00, 0x0e, 0x00, 0x00, 0x00,
    0x82, 0x0b, 0x00, 0x00, 0xbc, 0x01, 0x00, 0x00, 0x30, 0x06, 0x00, 0x00,
    0x4b, 0x04, 0x00, 0x00, 0xd0, 0x02, 0x00, 0x00, 0xeb, 0xfd, 0xff, 0xff,
    0x36, 0x00, 0x00, 0x00, 0x9b, 0xe8, 0xff, 0xff, 0xd4, 0x0b, 0x00, 0x00,
    0x7e, 0x0c, 0x00, 0x00, 0xe2, 0x06, 0x00, 0x00, 0x53, 0x00, 0x00, 0x00,
    0x7d, 0x08, 0x00, 0x00, 0x4a, 0xf5, 0xff, 0xff, 0xbe, 0xfe, 0xff, 0xff,
    0xd1, 0xfb, 0xff, 0xff, 0x72, 0x02, 0x00, 0x00, 0x29, 0x06, 0x00, 0x00,
    0x70, 0x04, 0x00, 0x00, 0xc1, 0xfb, 0xff, 0xff, 0x87, 0xfd, 0xff, 0xff,
    0xdc, 0x01, 0x00, 0x00, 0x9f, 0x0b, 0x00, 0x00, 0x5e, 0xf8, 0xff, 0xff,
    0x04, 0x00, 0x00, 0x00, 0x20, 0x01, 0x00, 0x00, 0x0e, 0x1e, 0xe5, 0x87,
    0xdb, 0x81, 0xdf, 0x6e, 0x6a, 0x00, 0x5c, 0x47, 0x7f, 0x7f, 0x76, 0x65,
    0x48, 0x25, 0x7f, 0x1c, 0xe9, 0xef, 0xd5, 0x42, 0x81, 0x8d, 0x5c, 0x06,
    0x5f, 0xb2, 0xf3, 0x29, 0x81, 0xdc, 0xc2, 0xdb, 0x9f, 0x3e, 0x38, 0x7f,
    0x58, 0xc7, 0x7f, 0x5a, 0x35, 0x39, 0x7f, 0xf1, 0x61, 0x2d, 0x60, 0x5d,
    0xbf, 0x29, 0xc2, 0xdd, 0xa2, 0x07, 0x66, 0x14, 0x7f, 0xb5, 0x35, 0x92,
    0xef, 0x81, 0xda, 0x9d, 0x81, 0x42, 0x1e, 0x66, 0x4e, 0xa8, 0x35, 0x3b,
    0x69, 0x53, 0x5d, 0x90, 0x62, 0x81, 0x33, 0x4e, 0x81, 0x7f, 0x9b, 0x36,
    0xaf, 0xe3, 0x25, 0xb5, 0x59, 0xa3, 0x81, 0x92, 0x4c, 0xdd, 0x34, 0xa3,
    0x97, 0xd4, 0x2d, 0x7d, 0x62, 0x1b, 0x70, 0x7f, 0x21, 0x70, 0x4e, 0xe9,
    0x66, 0x31, 0x34, 0x40, 0xd4, 0xdb, 0xba, 0x1d, 0x9a, 0xf1, 0x7b, 0x0b,
    0x77, 0xbb, 0x28, 0x57, 0xac, 0xb0, 0x2c, 0xb3, 0x5d, 0x1e, 0x81, 0x73,
    0x7f, 0xe3, 0x55, 0x12, 0x29, 0x4e, 0x1d, 0xbc, 0x7f, 0x7d, 0x23, 0x6c,
    0xa0, 0xe9, 0xdd, 0x7f, 0xe3, 0x41, 0x7f, 0x2c, 0x66, 0xc4, 0x36, 0xe0,
    0xdf, 0x9b, 0xaf, 0x0a, 0x39, 0x0b, 0x24, 0x6c, 0x5e, 0xe1, 0x1c, 0x53,
    0x26, 0x32, 0x2f, 0x27, 0x5b, 0x3d, 0x1c, 0x7f, 0x85, 0x04, 0xbb, 0x08,
    0xa0, 0xef, 0x6f, 0x2a, 0x70, 0x81, 0x03, 0x97, 0x5c, 0x85, 0x51, 0xa8,
    0x32, 0xff, 0x1b, 0x67, 0x65, 0x7f, 0x12, 0x66, 0x3c, 0x7e, 0x23, 0x81,
    0x38, 0xa2, 0x14, 0x30, 0xab, 0xbb, 0x81, 0x06, 0xe3, 0xed, 0x29, 0xce,
    0x1f, 0xb4, 0xb1, 0x7f, 0x2a, 0x9b, 0x36, 0xc5, 0x1b, 0xd5, 0xfc, 0x2d,
    0x71, 0x05, 0x2e, 0x35, 0x1f, 0x53, 0x08, 0x1e, 0x55, 0x0d, 0x0c, 0x33,
    0x97, 0xda, 0xd5, 0x67, 0xb2, 0x00, 0x6f, 0x1b, 0x61, 0xb0, 0xef, 0x39,
    0x00, 0xe3, 0x81, 0x81, 0x25, 0x9f, 0x17, 0x07, 0x58, 0x1a, 0xfb, 0x24,
    0x30, 0x3a, 0x36, 0x07, 0x2a, 0x25, 0x15, 0x42, 0xa1, 0x07, 0xc3, 0xcb,
    0xad, 0x81, 0x58, 0x81, 0x26, 0xa7, 0x10, 0x17, 0x8a, 0xf9, 0xff, 0xff,
    0x04, 0x00, 0x00, 0x00, 0x80, 0x00, 0x00, 0x00, 0xb1, 0xfe, 0xff, 0xff,
    0x33, 0x10, 0x00, 0x00, 0xd2, 0xfe, 0xff, 0xff, 0xa3, 0x10, 0x00, 0x00,
    0x5d, 0x00, 0x00, 0x00, 0x0a, 0xff, 0xff, 0xff, 0x80, 0xff, 0xff, 0xff,
    0x06, 0xd5, 0xff, 0xff, 0x31, 0xf9, 0xff, 0xff, 0x7d, 0xff, 0xff, 0xff,
    0xd0, 0xed, 0xff, 0xff, 0x9e, 0xe4, 0xff, 0xff, 0x7f, 0xe4, 0xff, 0xff,
    0xc5, 0xe8, 0xff, 0xff, 0x95, 0xf1, 0xff, 0xff, 0x54, 0x01, 0x00, 0x00,
    0x3a, 0xfb, 0xff, 0xff, 0x2b, 0xf8, 0xff, 0xff, 0x42, 0xf7, 0xff, 0xff,
    0x9a, 0xe8, 0xff, 0xff, 0xdb, 0x16, 0x00, 0x00, 0x9a, 0xff, 0xff, 0xff,
    0x05, 0x04, 0x00, 0x00, 0x5f, 0xfd, 0xff, 0xff, 0x27, 0x0c, 0x00, 0x00,
    0xab, 0x05, 0x00, 0x00, 0xc2, 0xcd, 0xff, 0xff, 0xd1, 0xff, 0xff, 0xff,
    0x3c, 0xe4, 0xff, 0xff, 0x9a, 0x15, 0x00, 0x00, 0x9d, 0xfc, 0xff, 0xff,
    0x6d, 0xfd, 0xff, 0xff, 0x16, 0xfa, 0xff, 0xff, 0x04, 0x00, 0x00, 0x00,
    0x00, 0x04, 0x00, 0x00, 0xc8, 0x42, 0x72, 0x2d, 0xd9, 0x1e, 0x48, 0x7f,
    0x44, 0x12, 0x7d, 0xca, 0xea, 0xe6, 0xa3, 0xc5, 0xa5, 0xe9, 0xde, 0x46,
    0x08, 0x2f, 0xa4, 0x3a, 0x2c, 0xc7, 0x25, 0x19, 0xe4, 0xc5, 0x0c, 0xad,
    0xa6, 0x70, 0x3d, 0xfc, 0x15, 0x05, 0xd9, 0xf8, 0xac, 0xdf, 0xe4, 0xe2,
    0xb5, 0x40, 0x18, 0x17, 0x50, 0xe2, 0xfc, 0x01, 0x7f, 0xf6, 0xd7, 0xf0,
    0xfe, 0xd1, 0xf1, 0xc1, 0x1d, 0xf4, 0xf5, 0x99, 0x07, 0xdd, 0xf1, 0xf2,
    0xf5, 0x81, 0xe4, 0x07, 0xf0, 0x37, 0x00, 0x13, 0x1c, 0x0f, 0xf9, 0xa3,
    0xc4, 0x32, 0x3f, 0x04, 0xd1, 0x0c, 0xef, 0xe7, 0x14, 0xf0, 0xca, 0x08,
    0x29, 0x39, 0x32, 0x23, 0xd1, 0x4b, 0x6f, 0x17, 0x21, 0x7f, 0xe0, 0x30,
    0x19, 0x25, 0xf9, 0xc0, 0xcc, 0xf6, 0x40, 0x1c, 0x24, 0xcd, 0xdf, 0x13,
    0x0d, 0x20, 0xbc, 0xec, 0xff, 0x03, 0xfd, 0xcf, 0x3b, 0x26, 0x0b, 0xb1,
    0xfa, 0xe9, 0x43, 0x1e, 0xf9, 0x1b, 0xe9, 0x39, 0x23, 0x36, 0xfb, 0xfa,
    0x09, 0xef, 0xe8, 0xdf, 0xde, 0xef, 0xf8, 0x3a, 0x0d, 0x38, 0x08, 0xf4,
    0xbc, 0xb8, 0x7f, 0xe1, 0xf5, 0xeb, 0x08, 0x02, 0xbd, 0x7f, 0x3e, 0xf5,
    0x09, 0x0a, 0xe6, 0xff, 0xc8, 0xf5, 0xee, 0xf8, 0xc2, 0x3a, 0x1a, 0x0b,
    0x36, 0xde, 0xf5, 0x18, 0x78, 0xfa, 0xdc, 0xf4, 0x1b, 0x10, 0x05, 0xdb,
    0x17, 0x03, 0xfd, 0xaa, 0x08, 0xd8, 0x06, 0x3c, 0xd3, 0x91, 0x36, 0x1a,
    0xc5, 0x3f, 0x68, 0x14, 0x2e, 0xfa, 0xda, 0xcf, 0xeb, 0xfc, 0x21, 0xe1,
    0xb1, 0x10, 0x81, 0x50, 0xf9, 0x02, 0xce, 0x0a, 0xcd, 0x53, 0x65, 0x1e,
    0x04, 0xc4, 0xef, 0xec, 0xf8, 0x81, 0xe2, 0x0c, 0x01, 0x3d, 0xff, 0x11,
    0x1b, 0x00, 0xf4, 0x90, 0xc4, 0x31, 0x27, 0x13, 0xe7, 0x26, 0x1c, 0xf0,
    0xf7, 0xda, 0x11, 0x05, 0x11, 0x28, 0x3c, 0x32, 0x00, 0xc9, 0x3f, 0x04,
    0xfd, 0x18, 0xec, 0x23, 0x20, 0x30, 0xf4, 0x08, 0x07, 0xf0, 0xeb, 0xd8,
    0xe7, 0xf9, 0xf8, 0x31, 0x13, 0x3b, 0x19, 0xfa, 0xb1, 0xba, 0x7f, 0xe9,
    0xfb, 0xfc, 0x0c, 0x0c, 0xdc, 0xad, 0x04, 0x17, 0x0e, 0xb7, 0xe3, 0x0e,
    0xfd, 0x17, 0xed, 0x26, 0x12, 0xeb, 0x13, 0xaf, 0x20, 0x20, 0x1f, 0x25,
    0xdf, 0xff, 0x7f, 0xe6, 0xc8, 0xe8, 0x01, 0xfd, 0x07, 0x22, 0x1f, 0x1b,
    0xe3, 0x37, 0x7f, 0xff, 0x12, 0x7c, 0xf6, 0x43, 0x31, 0x24, 0xf9, 0xe4,
    0xd9, 0xfd, 0x0f, 0xf7, 0x09, 0xe1, 0xdd, 0x17, 0x0a, 0x2a, 0xf3, 0xf8,
    0xb7, 0xe1, 0x12, 0xd6, 0x20, 0x03, 0x03, 0xc2, 0x02, 0xd0, 0xf1, 0xfd,
    0xfa, 0x81, 0xea, 0x09, 0x02, 0x39, 0x01, 0x15, 0x09, 0x04, 0xf9, 0x8c,
    0xcd, 0x2c, 0x2a, 0x11, 0xe8, 0x21, 0x0f, 0xed, 0xfe, 0xf5, 0x10, 0x21,
    0x0d, 0x26, 0x24, 0x29, 0xfb, 0xdf, 0x0f, 0x37, 0xc3, 0x8d, 0x45, 0x18,
    0xe3, 0x63, 0x5e, 0x46, 0x38, 0x30, 0x05, 0xcc, 0xb6, 0x36, 0x55, 0xca,
    0x97, 0x14, 0xb6, 0x1a, 0x68, 0x7f, 0xbf, 0x50, 0x13, 0x7b, 0x3f, 0x29,
    0xc3, 0x7f, 0x5c, 0xe6, 0x14, 0x5c, 0xf0, 0x13, 0xd9, 0xfe, 0xf3, 0xcc,
    0xb8, 0x2c, 0x2c, 0x23, 0x21, 0xd1, 0xf1, 0x17, 0x4d, 0x09, 0xcf, 0xfb,
    0xea, 0xc6, 0x02, 0xca, 0x30, 0x1d, 0x14, 0xa5, 0xbc, 0xc7, 0x18, 0xe9,
    0x1a, 0xa6, 0xd4, 0x09, 0x0a, 0xff, 0xe9, 0x3e, 0x14, 0xb5, 0x22, 0x81,
    0x0f, 0x51, 0x3e, 0x0a, 0xd4, 0xdc, 0x4b, 0xd6, 0xb1, 0x00, 0xf4, 0x1e,
    0x46, 0x4b, 0x4e, 0x10, 0xe0, 0x55, 0x6d, 0xe9, 0x16, 0x7f, 0xf5, 0x34,
    0x24, 0x1d, 0x05, 0xd9, 0xd3, 0x04, 0x28, 0x15, 0x13, 0xde, 0xe2, 0x11,
    0x0c, 0x1b, 0xe4, 0xf9, 0xb8, 0xd0, 0x08, 0xd5, 0x26, 0x21, 0x07, 0xbf,
    0xf3, 0x04, 0x6f, 0x3d, 0xfb, 0x5e, 0xe9, 0x69, 0x30, 0x3f, 0xfa, 0xf1,
    0xfe, 0xe6, 0xe6, 0x0a, 0xd5, 0xe9, 0xe8, 0x57, 0x18, 0x41, 0xf8, 0xf6,
    0xa2, 0x81, 0x77, 0xd0, 0xf7, 0xd6, 0x11, 0xdc, 0xf9, 0xc8, 0x0a, 0x1a,
    0xc8, 0x81, 0x2c, 0x02, 0xe6, 0x45, 0x4c, 0x08, 0xee, 0x3c, 0xe9, 0x9a,
    0xbe, 0x20, 0x43, 0xec, 0xaf, 0x11, 0xcd, 0x30, 0x01, 0x18, 0x25, 0x1e,
    0xf2, 0x57, 0x4e, 0x20, 0xf3, 0x16, 0x14, 0x33, 0xd4, 0x89, 0x46, 0x17,
    0xce, 0x36, 0x6d, 0xfd, 0x1c, 0x08, 0xe5, 0xec, 0xe2, 0x11, 0x21, 0xff,
    0xc8, 0x17, 0x81, 0x56, 0x19, 0x1e, 0x12, 0x19, 0xc6, 0x1d, 0x08, 0x01,
    0xd0, 0x05, 0x2b, 0xfc, 0x12, 0xda, 0xbe, 0x05, 0x2a, 0xc7, 0xdf, 0xf3,
    0x21, 0xe7, 0x67, 0xf5, 0x20, 0x1b, 0x1d, 0x49, 0xe4, 0x9e, 0x46, 0xe3,
    0xe2, 0x0f, 0x81, 0xdd, 0x5c, 0x06, 0x1b, 0xe9, 0xfe, 0xd1, 0x3e, 0x0c,
    0xfd, 0x17, 0xeb, 0x23, 0x22, 0x2f, 0xf8, 0x09, 0x07, 0xf2, 0xed, 0xda,
    0xe5, 0xef, 0xf7, 0x2f, 0x14, 0x3a, 0x14, 0xf9, 0xbe, 0xc2, 0x7f, 0xe4,
    0xf9, 0xf7, 0x0d, 0x0a, 0xc4, 0x43, 0x58, 0x40, 0xdc, 0x28, 0x34, 0x7f,
    0x39, 0x07, 0x6b, 0xbf, 0xfd, 0xe4, 0xa1, 0x30, 0xa1, 0xdd, 0xe2, 0x64,
    0x0b, 0x39, 0x81, 0x30, 0x04, 0xac, 0x47, 0x12, 0xdf, 0xb6, 0x09, 0xb2,
    0xdf, 0x3d, 0x6e, 0x0e, 0x0f, 0x7f, 0xf1, 0x39, 0x38, 0x2e, 0x01, 0x08,
    0xe2, 0xf4, 0x11, 0xfd, 0x1a, 0xd4, 0xd5, 0x18, 0x19, 0x31, 0xeb, 0xf2,
    0xe4, 0xec, 0x13, 0xda, 0x16, 0x09, 0x07, 0xb1, 0xa5, 0x6e, 0x45, 0xf1,
    0x0d, 0x01, 0xdc, 0xf6, 0xb0, 0xdf, 0xd8, 0xdf, 0xad, 0x48, 0x1c, 0x07,
    0x4b, 0xdb, 0xfc, 0x09, 0x7f, 0xf2, 0xde, 0xf0, 0x1c, 0xf5, 0xfa, 0xcf,
    0x22, 0xf7, 0xf5, 0x92, 0xac, 0x7f, 0x4b, 0x20, 0x18, 0x08, 0xdf, 0xf7,
    0xb5, 0xdb, 0xec, 0xcb, 0xad, 0x3b, 0x27, 0x10, 0x42, 0xe0, 0xf6, 0x12,
    0x78, 0x02, 0xf0, 0xf0, 0xb9, 0xc7, 0x00, 0xc3, 0x22, 0x08, 0xfd, 0x9a,
    0xe4, 0x2f, 0x6b, 0xf3, 0x0c, 0x7f, 0xf1, 0x32, 0x29, 0x24, 0xfd, 0xf2,
    0xe6, 0xfb, 0x0c, 0xfb, 0x13, 0xdb, 0xdf, 0x17, 0x0f, 0x25, 0xe7, 0xf5,
    0xdc, 0xeb, 0x08, 0xd6, 0x18, 0x04, 0x0c, 0xc0, 0xe1, 0xb8, 0x09, 0xbd,
    0x1d, 0x98, 0xe3, 0x06, 0xfc, 0x00, 0xee, 0x36, 0x53, 0xe4, 0xf5, 0x9f,
    0xfd, 0x4e, 0x4b, 0xf2, 0xbc, 0xd6, 0x03, 0xb0, 0x22, 0xf7, 0x81, 0x02,
    0x5a, 0x5d, 0x62, 0x22, 0xb4, 0x51, 0x7f, 0x65, 0xdb, 0x42, 0x37, 0x72,
    0x4a, 0x04, 0x79, 0xb3, 0xf1, 0xe5, 0xb3, 0x11, 0x9d, 0xe5, 0xde, 0x40,
    0x04, 0x24, 0x97, 0x34, 0x21, 0xf3, 0x1c, 0xfd, 0xec, 0xb8, 0x20, 0xa6,
    0x04, 0xdd, 0xee, 0xfe, 0xf9, 0x81, 0xeb, 0x0c, 0xf0, 0x34, 0xfa, 0x0e,
    0x18, 0x03, 0xf3, 0x97, 0xcb, 0x3d, 0x36, 0x0d, 0xdc, 0x11, 0x0f, 0xeb,
    0x09, 0x04, 0xdd, 0x08, 0x2e, 0x28, 0x1f, 0x1e, 0xfe, 0xd2, 0x40, 0x0d,
    0xfd, 0x13, 0xea, 0x27, 0x22, 0x32, 0xf9, 0x03, 0x0c, 0xf2, 0xeb, 0xda,
    0xdf, 0xf3, 0xf5, 0x31, 0x0e, 0x39, 0x15, 0xf8, 0xc4, 0xb6, 0x7f, 0xe8,
    0xf7, 0xf5, 0x14, 0x09, 0xe6, 0xf7, 0xf1, 0x07, 0x2a, 0x08, 0xdb, 0x8c,
    0xf4, 0x81, 0xfb, 0x33, 0x0c, 0x47, 0xeb, 0xc2, 0x44, 0x36, 0x4c, 0x13,
    0x53, 0xac, 0xfb, 0xd2, 0x1b, 0x23, 0x9c, 0xc8, 0x1c, 0x1b, 0xf0, 0xe2,
    0xe8, 0xc3, 0xff, 0x03, 0x13, 0xd9, 0xea, 0xfd, 0x03, 0xf2, 0xf1, 0x43,
    0x0d, 0xe7, 0x35, 0xca, 0x3c, 0x0c, 0x0b, 0x21, 0xed, 0xe2, 0x7f, 0xec,
    0xfe, 0xd7, 0xf5, 0x12, 0xf5, 0x2a, 0x2e, 0x10, 0x22, 0xfe, 0xff, 0xff,
    0x04, 0x00, 0x00, 0x00, 0x80, 0x00, 0x00, 0x00, 0x4b, 0xfe, 0xff, 0xff,
    0x5f, 0x01, 0x00, 0x00, 0x26, 0xff, 0xff, 0xff, 0xbe, 0xfc, 0xff, 0xff,
    0x83, 0xff, 0xff, 0xff, 0x5b, 0xfc, 0xff, 0xff, 0x71, 0xfd, 0xff, 0xff,
    0xda, 0xfe, 0xff, 0xff, 0x75, 0xff, 0xff, 0xff, 0xe5, 0xfd, 0xff, 0xff,
    0xe6, 0xfd, 0xff, 0xff, 0x2c, 0xfe, 0xff, 0xff, 0x18, 0xf4, 0xff, 0xff,
    0x2e, 0xfe, 0xff, 0xff, 0x25, 0xfe, 0xff, 0xff, 0x7d, 0xfd, 0xff, 0xff,
    0x1d, 0xff, 0xff, 0xff, 0x10, 0xfc, 0xff, 0xff, 0x4c, 0xfb, 0xff, 0xff,
    0x4b, 0xfd, 0xff, 0xff, 0x3d, 0xff, 0xff, 0xff, 0x3f, 0xff, 0xff, 0xff,
    0x43, 0xfc, 0xff, 0xff, 0xfc, 0xff, 0xff, 0xff, 0xe6, 0xff, 0xff, 0xff,
    0x29, 0xfe, 0xff, 0xff, 0x18, 0x01, 0x00, 0x00, 0xd3, 0xfc, 0xff, 0xff,
    0x50, 0xfe, 0xff, 0xff, 0x94, 0xff, 0xff, 0xff, 0x3c, 0x00, 0x00, 0x00,
    0xe4, 0xfc, 0xff, 0xff, 0xae, 0xfe, 0xff, 0xff, 0x04, 0x00, 0x00, 0x00,
    0x80, 0x00, 0x00, 0x00, 0xa1, 0x10, 0xf8, 0x24, 0xa1, 0x15, 0xbf, 0xc2,
    0xb8, 0x20, 0x1d, 0xcc, 0xf3, 0x1b, 0x13, 0x2d, 0x9a, 0xcf, 0xa5, 0x2f,
    0xba, 0x9b, 0x1f, 0x18, 0x0b, 0x25, 0x1a, 0x81, 0x03, 0xb6, 0x27, 0x17,
    0x22, 0x11, 0xf9, 0xe4, 0x9e, 0x14, 0x26, 0xc9, 0x86, 0xd9, 0x9e, 0xdb,
    0x21, 0x18, 0xec, 0xe0, 0x81, 0x1c, 0x18, 0xfc, 0x92, 0x29, 0xc6, 0x18,
    0x0c, 0xbc, 0x07, 0x26, 0xff, 0x9d, 0x24, 0xd2, 0x30, 0xd6, 0x81, 0x2d,
    0x4c, 0xf6, 0xc3, 0xcd, 0x41, 0xd9, 0x66, 0xd8, 0xaf, 0x30, 0x9c, 0x50,
    0x3b, 0xb4, 0xc6, 0xf2, 0x47, 0x49, 0x61, 0xe4, 0xe3, 0x71, 0x88, 0x30,
    0x9f, 0x58, 0xbc, 0xc5, 0x03, 0x86, 0x4b, 0xb3, 0x38, 0x8f, 0x27, 0x41,
    0x3c, 0x22, 0xdf, 0x56, 0x33, 0xa0, 0x13, 0xc6, 0x14, 0x34, 0x09, 0xf6,
    0x3c, 0x18, 0xe0, 0x85, 0x81, 0xde, 0x17, 0xf0, 0x56, 0x47, 0xe5, 0x03,
    0x3a, 0xff, 0xff, 0xff, 0x04, 0x00, 0x00, 0x00, 0x10, 0x00, 0x00, 0x00,
    0x47, 0x08, 0x00, 0x00, 0x5c, 0x05, 0x00, 0x00, 0xe8, 0xf0, 0xff, 0xff,
    0xaa, 0xf7, 0xff, 0xff, 0x56, 0xff, 0xff, 0xff, 0x04, 0x00, 0x00, 0x00,
    0x08, 0x00, 0x00, 0x00, 0x01, 0x00, 0x00, 0x00, 0x02, 0x00, 0x00, 0x00,
    0x14, 0xdf, 0xff, 0xff, 0x18, 0xdf, 0xff, 0xff, 0x0f, 0x00, 0x00, 0x00,
    0x4d, 0x4c, 0x49, 0x52, 0x20, 0x43, 0x6f, 0x6e, 0x76, 0x65, 0x72, 0x74,
    0x65, 0x64, 0x2e, 0x00, 0x01, 0x00, 0x00, 0x00, 0x14, 0x00, 0x00, 0x00,
    0x00, 0x00, 0x0e, 0x00, 0x18, 0x00, 0x14, 0x00, 0x10, 0x00, 0x0c, 0x00,
    0x08, 0x00, 0x04, 0x00, 0x0e, 0x00, 0x00, 0x00, 0x14, 0x00, 0x00, 0x00,
    0x1c, 0x00, 0x00, 0x00, 0x60, 0x02, 0x00, 0x00, 0x64, 0x02, 0x00, 0x00,
    0x68, 0x02, 0x00, 0x00, 0x04, 0x00, 0x00, 0x00, 0x6d, 0x61, 0x69, 0x6e,
    0x00, 0x00, 0x00, 0x00, 0x08, 0x00, 0x00, 0x00, 0xfc, 0x01, 0x00, 0x00,
    0x94, 0x01, 0x00, 0x00, 0x44, 0x01, 0x00, 0x00, 0xfc, 0x00, 0x00, 0x00,
    0xac, 0x00, 0x00, 0x00, 0x78, 0x00, 0x00, 0x00, 0x40, 0x00, 0x00, 0x00,
    0x04, 0x00, 0x00, 0x00, 0x96, 0xfe, 0xff, 0xff, 0x1c, 0x00, 0x00, 0x00,
    0x00, 0x00, 0x00, 0x09, 0x1c, 0x00, 0x00, 0x00, 0x20, 0x00, 0x00, 0x00,
    0x04, 0x00, 0x00, 0x00, 0x00, 0x00, 0x06, 0x00, 0x08, 0x00, 0x04, 0x00,
    0x06, 0x00, 0x00, 0x00, 0x00, 0x00, 0x80, 0x3f, 0x01, 0x00, 0x00, 0x00,
    0x15, 0x00, 0x00, 0x00, 0x01, 0x00, 0x00, 0x00, 0x14, 0x00, 0x00, 0x00,
    0x5e, 0xff, 0xff, 0xff, 0x14, 0x00, 0x00, 0x00, 0x00, 0x00, 0x00, 0x08,
    0x10, 0x00, 0x00, 0x00, 0x14, 0x00, 0x00, 0x00, 0x03, 0x00, 0x00, 0x00,
    0xe0, 0xdf, 0xff, 0xff, 0x01, 0x00, 0x00, 0x00, 0x14, 0x00, 0x00, 0x00,
    0x03, 0x00, 0x00, 0x00, 0x13, 0x00, 0x00, 0x00, 0x03, 0x00, 0x00, 0x00,
    0x02, 0x00, 0x00, 0x00, 0x92, 0xff, 0xff, 0xff, 0x14, 0x00, 0x00, 0x00,
    0x00, 0x00, 0x00, 0x1b, 0x10, 0x00, 0x00, 0x00, 0x14, 0x00, 0x00, 0x00,
    0x02, 0x00, 0x00, 0x00, 0x14, 0xe0, 0xff, 0xff, 0x01, 0x00, 0x00, 0x00,
    0x13, 0x00, 0x00, 0x00, 0x02, 0x00, 0x00, 0x00, 0x12, 0x00, 0x00, 0x00,
    0x01, 0x00, 0x00, 0x00, 0xce, 0xfe, 0xff, 0xff, 0x10, 0x00, 0x00, 0x00,
    0x00, 0x00, 0x00, 0x01, 0x18, 0x00, 0x00, 0x00, 0x1c, 0x00, 0x00, 0x00,
    0xc0, 0xfe, 0xff, 0xff, 0x00, 0x00, 0x00, 0x01, 0x01, 0x00, 0x00, 0x00,
    0x01, 0x00, 0x00, 0x00, 0x01, 0x00, 0x00, 0x00, 0x12, 0x00, 0x00, 0x00,
    0x03, 0x00, 0x00, 0x00, 0x11, 0x00, 0x00, 0x00, 0x05, 0x00, 0x00, 0x00,
    0x04, 0x00, 0x00, 0x00, 0x00, 0x00, 0x0e, 0x00, 0x18, 0x00, 0x14, 0x00,
    0x10, 0x00, 0x0c, 0x00, 0x0b, 0x00, 0x04, 0x00, 0x0e, 0x00, 0x00, 0x00,
    0x14, 0x00, 0x00, 0x00, 0x00, 0x00, 0x00, 0x02, 0x20, 0x00, 0x00, 0x00,
    0x24, 0x00, 0x00, 0x00, 0x01, 0x00, 0x00, 0x00, 0x6e, 0xff, 0xff, 0xff,
    0x00, 0x00, 0x00, 0x01, 0x01, 0x00, 0x00, 0x00, 0x02, 0x00, 0x00, 0x00,
    0x02, 0x00, 0x00, 0x00, 0x01, 0x00, 0x00, 0x00, 0x11, 0x00, 0x00, 0x00,
    0x03, 0x00, 0x00, 0x00, 0x10, 0x00, 0x00, 0x00, 0x07, 0x00, 0x00, 0x00,
    0x06, 0x00, 0x00, 0x00, 0x5e, 0xff, 0xff, 0xff, 0x10, 0x00, 0x00, 0x00,
    0x00, 0x00, 0x00, 0x01, 0x18, 0x00, 0x00, 0x00, 0x1c, 0x00, 0x00, 0x00,
    0x50, 0xff, 0xff, 0xff, 0x00, 0x00, 0x00, 0x01, 0x01, 0x00, 0x00, 0x00,
    0x01, 0x00, 0x00, 0x00, 0x01, 0x00, 0x00, 0x00, 0x10, 0x00, 0x00, 0x00,
    0x03, 0x00, 0x00, 0x00, 0x0f, 0x00, 0x00, 0x00, 0x09, 0x00, 0x00, 0x00,
    0x08, 0x00, 0x00, 0x00, 0x00, 0x00, 0x0e, 0x00, 0x1a, 0x00, 0x14, 0x00,
    0x10, 0x00, 0x0c, 0x00, 0x0b, 0x00, 0x04, 0x00, 0x0e, 0x00, 0x00, 0x00,
    0x24, 0x00, 0x00, 0x00, 0x00, 0x00, 0x00, 0x02, 0x30, 0x00, 0x00, 0x00,
    0x34, 0x00, 0x00, 0x00, 0x01, 0x00, 0x00, 0x00, 0x00, 0x00, 0x0e, 0x00,
    0x14, 0x00, 0x00, 0x00, 0x10, 0x00, 0x0c, 0x00, 0x08, 0x00, 0x07, 0x00,
    0x0e, 0x00, 0x00, 0x00, 0x00, 0x00, 0x00, 0x01, 0x01, 0x00, 0x00, 0x00,
    0x02, 0x00, 0x00, 0x00, 0x02, 0x00, 0x00, 0x00, 0x01, 0x00, 0x00, 0x00,
    0x0f, 0x00, 0x00, 0x00, 0x03, 0x00, 0x00, 0x00, 0x0e, 0x00, 0x00, 0x00,
    0x0b, 0x00, 0x00, 0x00, 0x0a, 0x00, 0x00, 0x00, 0x00, 0x00, 0x0e, 0x00,
    0x14, 0x00, 0x00, 0x00, 0x10, 0x00, 0x0c, 0x00, 0x0b, 0x00, 0x04, 0x00,
    0x0e, 0x00, 0x00, 0x00, 0x1c, 0x00, 0x00, 0x00, 0x00, 0x00, 0x00, 0x01,
    0x24, 0x00, 0x00, 0x00, 0x28, 0x00, 0x00, 0x00, 0x0c, 0x00, 0x10, 0x00,
    0x00, 0x00, 0x0c, 0x00, 0x08, 0x00, 0x07, 0x00, 0x0c, 0x00, 0x00, 0x00,
    0x00, 0x00, 0x00, 0x01, 0x02, 0x00, 0x00, 0x00, 0x02, 0x00, 0x00, 0x00,
    0x01, 0x00, 0x00, 0x00, 0x0e, 0x00, 0x00, 0x00, 0x03, 0x00, 0x00, 0x00,
    0x00, 0x00, 0x00, 0x00, 0x0d, 0x00, 0x00, 0x00, 0x0c, 0x00, 0x00, 0x00,
    0x01, 0x00, 0x00, 0x00, 0x15, 0x00, 0x00, 0x00, 0x01, 0x00, 0x00, 0x00,
    0x00, 0x00, 0x00, 0x00, 0x16, 0x00, 0x00, 0x00, 0xa4, 0x1e, 0x00, 0x00,
    0x18, 0x1e, 0x00, 0x00, 0x70, 0x1d, 0x00, 0x00, 0xdc, 0x1c, 0x00, 0x00,
    0x70, 0x1a, 0x00, 0x00, 0x7c, 0x18, 0x00, 0x00, 0xa0, 0x15, 0x00, 0x00,
    0x24, 0x13, 0x00, 0x00, 0xa0, 0x10, 0x00, 0x00, 0xac, 0x0e, 0x00, 0x00,
    0x90, 0x0c, 0x00, 0x00, 0xe8, 0x0a, 0x00, 0x00, 0x48, 0x09, 0x00, 0x00,
    0x14, 0x08, 0x00, 0x00, 0x00, 0x07, 0x00, 0x00, 0x74, 0x05, 0x00, 0x00,
    0x58, 0x04, 0x00, 0x00, 0xcc, 0x02, 0x00, 0x00, 0xb0, 0x01, 0x00, 0x00,
    0x1c, 0x01, 0x00, 0x00, 0x80, 0x00, 0x00, 0x00, 0x04, 0x00, 0x00, 0x00,
    0xca, 0xe1, 0xff, 0xff, 0x00, 0x00, 0x00, 0x01, 0x18, 0x00, 0x00, 0x00,
    0x20, 0x00, 0x00, 0x00, 0x3c, 0x00, 0x00, 0x00, 0x16, 0x00, 0x00, 0x00,
    0x00, 0x00, 0x00, 0x09, 0x50, 0x00, 0x00, 0x00, 0x02, 0x00, 0x00, 0x00,
    0xff, 0xff, 0xff, 0xff, 0x04, 0x00, 0x00, 0x00, 0xac, 0xe1, 0xff, 0xff,
    0x08, 0x00, 0x00, 0x00, 0x10, 0x00, 0x00, 0x00, 0x01, 0x00, 0x00, 0x00,
    0x80, 0xff, 0xff, 0xff, 0xff, 0xff, 0xff, 0xff, 0x01, 0x00, 0x00, 0x00,
    0x00, 0x00, 0x80, 0x3b, 0x1b, 0x00, 0x00, 0x00, 0x53, 0x74, 0x61, 0x74,
    0x65, 0x66, 0x75, 0x6c, 0x50, 0x61, 0x72, 0x74, 0x69, 0x74, 0x69, 0x6f,
    0x6e, 0x65, 0x64, 0x43, 0x61, 0x6c, 0x6c, 0x5f, 0x31, 0x3a, 0x30, 0x00,
    0x02, 0x00, 0x00, 0x00, 0x01, 0x00, 0x00, 0x00, 0x04, 0x00, 0x00, 0x00,
    0x42, 0xe2, 0xff, 0xff, 0x00, 0x00, 0x00, 0x01, 0x18, 0x00, 0x00, 0x00,
    0x20, 0x00, 0x00, 0x00, 0x3c, 0x00, 0x00, 0x00, 0x15, 0x00, 0x00, 0x00,
    0x00, 0x00, 0x00, 0x09, 0x70, 0x00, 0x00, 0x00, 0x02, 0x00, 0x00, 0x00,
    0xff, 0xff, 0xff, 0xff, 0x04, 0x00, 0x00, 0x00, 0x24, 0xe2, 0xff, 0xff,
    0x08, 0x00, 0x00, 0x00, 0x10, 0x00, 0x00, 0x00, 0x01, 0x00, 0x00, 0x00,
    0x2d, 0x00, 0x00, 0x00, 0x00, 0x00, 0x00, 0x00, 0x01, 0x00, 0x00, 0x00,
    0x6e, 0x73, 0x5a, 0x3e, 0x38, 0x00, 0x00, 0x00, 0x73, 0x65, 0x71, 0x75,
    0x65, 0x6e, 0x74, 0x69, 0x61, 0x6c, 0x5f, 0x31, 0x2f, 0x64, 0x65, 0x6e,
    0x73, 0x65, 0x5f, 0x31, 0x2f, 0x4d, 0x61, 0x74, 0x4d, 0x75, 0x6c, 0x3b,
    0x73, 0x65, 0x71, 0x75, 0x65, 0x6e, 0x74, 0x69, 0x61, 0x6c, 0x5f, 0x31,
    0x2f, 0x64, 0x65, 0x6e, 0x73, 0x65, 0x5f, 0x31, 0x2f, 0x42, 0x69, 0x61,
    0x73, 0x41, 0x64, 0x64, 0x00, 0x00, 0x00, 0x00, 0x02, 0x00, 0x00, 0x00,
    0x01, 0x00, 0x00, 0x00, 0x04, 0x00, 0x00, 0x00, 0xda, 0xe2, 0xff, 0xff,
    0x00, 0x00, 0x00, 0x01, 0x18, 0x00, 0x00, 0x00, 0x20, 0x00, 0x00, 0x00,
    0x40, 0x00, 0x00, 0x00, 0x14, 0x00, 0x00, 0x00, 0x00, 0x00, 0x00, 0x09,
    0x68, 0x00, 0x00, 0x00, 0x02, 0x00, 0x00, 0x00, 0xff, 0xff, 0xff, 0xff,
    0x20, 0x00, 0x00, 0x00, 0xbc, 0xe2, 0xff, 0xff, 0x08, 0x00, 0x00, 0x00,
    0x14, 0x00, 0x00, 0x00, 0x01, 0x00, 0x00, 0x00, 0x80, 0xff, 0xff, 0xff,
    0xff, 0xff, 0xff, 0xff, 0x00, 0x00, 0x00, 0x00, 0x01, 0x00, 0x00, 0x00,
    0x08, 0xf6, 0x96, 0x3c, 0x2c, 0x00, 0x00, 0x00, 0x73, 0x65, 0x71, 0x75,
    0x65, 0x6e, 0x74, 0x69, 0x61, 0x6c, 0x5f, 0x31, 0x2f, 0x67, 0x6c, 0x6f,
    0x62, 0x61, 0x6c, 0x5f, 0x61, 0x76, 0x65, 0x72, 0x61, 0x67, 0x65, 0x5f,
    0x70, 0x6f, 0x6f, 0x6c, 0x69, 0x6e, 0x67, 0x32, 0x64, 0x5f, 0x31, 0x2f,
    0x4d, 0x65, 0x61, 0x6e, 0x00, 0x00, 0x00, 0x00, 0x02, 0x00, 0x00, 0x00,
    0x01, 0x00, 0x00, 0x00, 0x20, 0x00, 0x00, 0x00, 0x6a, 0xe3, 0xff, 0xff,
    0x00, 0x00, 0x00, 0x01, 0x18, 0x00, 0x00, 0x00, 0x28, 0x00, 0x00, 0x00,
    0x44, 0x00, 0x00, 0x00, 0x13, 0x00, 0x00, 0x00, 0x00, 0x00, 0x00, 0x09,
    0xe8, 0x00, 0x00, 0x00, 0x04, 0x00, 0x00, 0x00, 0xff, 0xff, 0xff, 0xff,
    0x08, 0x00, 0x00, 0x00, 0x08, 0x00, 0x00, 0x00, 0x20, 0x00, 0x00, 0x00,
    0x54, 0xe3, 0xff, 0xff, 0x08, 0x00, 0x00, 0x00, 0x10, 0x00, 0x00, 0x00,
    0x01, 0x00, 0x00, 0x00, 0x80, 0xff, 0xff, 0xff, 0xff, 0xff, 0xff, 0xff,
    0x01, 0x00, 0x00, 0x00, 0xde, 0x9a, 0xc5, 0x3d, 0xa8, 0x00, 0x00, 0x00,
    0x73, 0x65, 0x71, 0x75, 0x65, 0x6e, 0x74, 0x69, 0x61, 0x6c, 0x5f, 0x31,
    0x2f, 0x72, 0x65, 0x5f, 0x6c, 0x75, 0x5f, 0x34, 0x5f, 0x31, 0x2f, 0x52,
    0x65, 0x6c, 0x75, 0x3b, 0x73, 0x65, 0x71, 0x75, 0x65, 0x6e, 0x74, 0x69,
    0x61, 0x6c, 0x5f, 0x31, 0x2f, 0x62, 0x61, 0x74, 0x63, 0x68, 0x5f, 0x6e,
    0x6f, 0x72, 0x6d, 0x61, 0x6c, 0x69, 0x7a, 0x61, 0x74, 0x69, 0x6f, 0x6e,
    0x5f, 0x34, 0x5f, 0x31, 0x2f, 0x62, 0x61, 0x74, 0x63, 0x68, 0x6e, 0x6f,
    0x72, 0x6d, 0x2f, 0x61, 0x64, 0x64, 0x5f, 0x31, 0x3b, 0x73, 0x65, 0x71,
    0x75, 0x65, 0x6e, 0x74, 0x69, 0x61, 0x6c, 0x5f, 0x31, 0x2f, 0x63, 0x6f,
    0x6e, 0x76, 0x32, 0x64, 0x5f, 0x32, 0x5f, 0x31, 0x2f, 0x63, 0x6f, 0x6e,
    0x76, 0x6f, 0x6c, 0x75, 0x74, 0x69, 0x6f, 0x6e, 0x3b, 0x73, 0x65, 0x71,
    0x75, 0x65, 0x6e, 0x74, 0x69, 0x61, 0x6c, 0x5f, 0x31, 0x2f, 0x62, 0x61,
    0x74, 0x63, 0x68, 0x5f, 0x6e, 0x6f, 0x72, 0x6d, 0x61, 0x6c, 0x69, 0x7a,
    0x61, 0x74, 0x69, 0x6f, 0x6e, 0x5f, 0x34, 0x5f, 0x31, 0x2f, 0x62, 0x61,
    0x74, 0x63, 0x68, 0x6e, 0x6f, 0x72, 0x6d, 0x2f, 0x73, 0x75, 0x62, 0x31,
    0x00, 0x00, 0x00, 0x00, 0x04, 0x00, 0x00, 0x00, 0x01, 0x00, 0x00, 0x00,
    0x08, 0x00, 0x00, 0x00, 0x08, 0x00, 0x00, 0x00, 0x20, 0x00, 0x00, 0x00,
    0x82, 0xe4, 0xff, 0xff, 0x00, 0x00, 0x00, 0x01, 0x18, 0x00, 0x00, 0x00,
    0x28, 0x00, 0x00, 0x00, 0x44, 0x00, 0x00, 0x00, 0x12, 0x00, 0x00, 0x00,
    0x00, 0x00, 0x00, 0x09, 0x58, 0x01, 0x00, 0x00, 0x04, 0x00, 0x00, 0x00,
    0xff, 0xff, 0xff, 0xff, 0x08, 0x00, 0x00, 0x00, 0x08, 0x00, 0x00, 0x00,
    0x20, 0x00, 0x00, 0x00, 0x6c, 0xe4, 0xff, 0xff, 0x08, 0x00, 0x00, 0x00,
    0x10, 0x00, 0x00, 0x00, 0x01, 0x00, 0x00, 0x00, 0x80, 0xff, 0xff, 0xff,
    0xff, 0xff, 0xff, 0xff, 0x01, 0x00, 0x00, 0x00, 0xbe, 0x0b, 0x80, 0x3d,
    0x18, 0x01, 0x00, 0x00, 0x73, 0x65, 0x71, 0x75, 0x65, 0x6e, 0x74, 0x69,
    0x61, 0x6c, 0x5f, 0x31, 0x2f, 0x72, 0x65, 0x5f, 0x6c, 0x75, 0x5f, 0x33,
    0x5f, 0x31, 0x2f, 0x52, 0x65, 0x6c, 0x75, 0x3b, 0x73, 0x65, 0x71, 0x75,
    0x65, 0x6e, 0x74, 0x69, 0x61, 0x6c, 0x5f, 0x31, 0x2f, 0x62, 0x61, 0x74,
    0x63, 0x68, 0x5f, 0x6e, 0x6f, 0x72, 0x6d, 0x61, 0x6c, 0x69, 0x7a, 0x61,
    0x74, 0x69, 0x6f, 0x6e, 0x5f, 0x33, 0x5f, 0x31, 0x2f, 0x62, 0x61, 0x74,
    0x63, 0x68, 0x6e, 0x6f, 0x72, 0x6d, 0x2f, 0x61, 0x64, 0x64, 0x5f, 0x31,
    0x3b, 0x73, 0x65, 0x71, 0x75, 0x65, 0x6e, 0x74, 0x69, 0x61, 0x6c, 0x5f,
    0x31, 0x2f, 0x62, 0x61, 0x74, 0x63, 0x68, 0x5f, 0x6e, 0x6f, 0x72, 0x6d,
    0x61, 0x6c, 0x69, 0x7a, 0x61, 0x74, 0x69, 0x6f, 0x6e, 0x5f, 0x33, 0x5f,
    0x31, 0x2f, 0x62, 0x61, 0x74, 0x63, 0x68, 0x6e, 0x6f, 0x72, 0x6d, 0x2f,
    0x6d, 0x75, 0x6c, 0x5f, 0x31, 0x3b, 0x73, 0x65, 0x71, 0x75, 0x65, 0x6e,
    0x74, 0x69, 0x61, 0x6c, 0x5f, 0x31, 0x2f, 0x64, 0x65, 0x70, 0x74, 0x68,
    0x77, 0x69, 0x73, 0x65, 0x5f, 0x63, 0x6f, 0x6e, 0x76, 0x32, 0x64, 0x5f,
    0x31, 0x5f, 0x32, 0x2f, 0x64, 0x65, 0x70, 0x74, 0x68, 0x77, 0x69, 0x73,
    0x65, 0x3b, 0x73, 0x65, 0x71, 0x75, 0x65, 0x6e, 0x74, 0x69, 0x61, 0x6c,
    0x5f, 0x31, 0x2f, 0x62, 0x61, 0x74, 0x63, 0x68, 0x5f, 0x6e, 0x6f, 0x72,
    0x6d, 0x61, 0x6c, 0x69, 0x7a, 0x61, 0x74, 0x69, 0x6f, 0x6e, 0x5f, 0x33,
    0x5f, 0x31, 0x2f, 0x62, 0x61, 0x74, 0x63, 0x68, 0x6e, 0x6f, 0x72, 0x6d,
    0x2f, 0x6d, 0x75, 0x6c, 0x3b, 0x73, 0x65, 0x71, 0x75, 0x65, 0x6e, 0x74,
    0x69, 0x61, 0x6c, 0x5f, 0x31, 0x2f, 0x62, 0x61, 0x74, 0x63, 0x68, 0x5f,
    0x6e, 0x6f, 0x72, 0x6d, 0x61, 0x6c, 0x69, 0x7a, 0x61, 0x74, 0x69, 0x6f,
    0x6e, 0x5f, 0x33, 0x5f, 0x31, 0x2f, 0x62, 0x61, 0x74, 0x63, 0x68, 0x6e,
    0x6f, 0x72, 0x6d, 0x2f, 0x73, 0x75, 0x62, 0x31, 0x00, 0x00, 0x00, 0x00,
    0x04, 0x00, 0x00, 0x00, 0x01, 0x00, 0x00, 0x00, 0x08, 0x00, 0x00, 0x00,
    0x08, 0x00, 0x00, 0x00, 0x20, 0x00, 0x00, 0x00, 0x0a, 0xe6, 0xff, 0xff,
    0x00, 0x00, 0x00, 0x01, 0x18, 0x00, 0x00, 0x00, 0x28, 0x00, 0x00, 0x00,
    0x44, 0x00, 0x00, 0x00, 0x11, 0x00, 0x00, 0x00, 0x00, 0x00, 0x00, 0x09,
    0xe8, 0x00, 0x00, 0x00, 0x04, 0x00, 0x00, 0x00, 0xff, 0xff, 0xff, 0xff,
    0x10, 0x00, 0x00, 0x00, 0x10, 0x00, 0x00, 0x00, 0x20, 0x00, 0x00, 0x00,
    0xf4, 0xe5, 0xff, 0xff, 0x08, 0x00, 0x00, 0x00, 0x10, 0x00, 0x00, 0x00,
    0x01, 0x00, 0x00, 0x00, 0x80, 0xff, 0xff, 0xff, 0xff, 0xff, 0xff, 0xff,
    0x01, 0x00, 0x00, 0x00, 0x90, 0x4e, 0x28, 0x3d, 0xa8, 0x00, 0x00, 0x00,
    0x73, 0x65, 0x71, 0x75, 0x65, 0x6e, 0x74, 0x69, 0x61, 0x6c, 0x5f, 0x31,
    0x2f, 0x72, 0x65, 0x5f, 0x6c, 0x75, 0x5f, 0x32, 0x5f, 0x31, 0x2f, 0x52,
    0x65, 0x6c, 0x75, 0x3b, 0x73, 0x65, 0x71, 0x75, 0x65, 0x6e, 0x74, 0x69,
    0x61, 0x6c, 0x5f, 0x31, 0x2f, 0x62, 0x61, 0x74, 0x63, 0x68, 0x5f, 0x6e,
    0x6f, 0x72, 0x6d, 0x61, 0x6c, 0x69, 0x7a, 0x61, 0x74, 0x69, 0x6f, 0x6e,
    0x5f, 0x32, 0x5f, 0x31, 0x2f, 0x62, 0x61, 0x74, 0x63, 0x68, 0x6e, 0x6f,
    0x72, 0x6d, 0x2f, 0x61, 0x64, 0x64, 0x5f, 0x31, 0x3b, 0x73, 0x65, 0x71,
    0x75, 0x65, 0x6e, 0x74, 0x69, 0x61, 0x6c, 0x5f, 0x31, 0x2f, 0x63, 0x6f,
    0x6e, 0x76, 0x32, 0x64, 0x5f, 0x31, 0x5f, 0x32, 0x2f, 0x63, 0x6f, 0x6e,
    0x76, 0x6f, 0x6c, 0x75, 0x74, 0x69, 0x6f, 0x6e, 0x3b, 0x73, 0x65, 0x71,
    0x75, 0x65, 0x6e, 0x74, 0x69, 0x61, 0x6c, 0x5f, 0x31, 0x2f, 0x62, 0x61,
    0x74, 0x63, 0x68, 0x5f, 0x6e, 0x6f, 0x72, 0x6d, 0x61, 0x6c, 0x69, 0x7a,
    0x61, 0x74, 0x69, 0x6f, 0x6e, 0x5f, 0x32, 0x5f, 0x31, 0x2f, 0x62, 0x61,
    0x74, 0x63, 0x68, 0x6e, 0x6f, 0x72, 0x6d, 0x2f, 0x73, 0x75, 0x62, 0x31,
    0x00, 0x00, 0x00, 0x00, 0x04, 0x00, 0x00, 0x00, 0x01, 0x00, 0x00, 0x00,
    0x10, 0x00, 0x00, 0x00, 0x10, 0x00, 0x00, 0x00, 0x20, 0x00, 0x00, 0x00,
    0x22, 0xe7, 0xff, 0xff, 0x00, 0x00, 0x00, 0x01, 0x18, 0x00, 0x00, 0x00,
    0x28, 0x00, 0x00, 0x00, 0x48, 0x00, 0x00, 0x00, 0x10, 0x00, 0x00, 0x00,
    0x00, 0x00, 0x00, 0x09, 0x58, 0x01, 0x00, 0x00, 0x04, 0x00, 0x00, 0x00,
    0xff, 0xff, 0xff, 0xff, 0x10, 0x00, 0x00, 0x00, 0x10, 0x00, 0x00, 0x00,
    0x10, 0x00, 0x00, 0x00, 0x0c, 0xe7, 0xff, 0xff, 0x08, 0x00, 0x00, 0x00,
    0x14, 0x00, 0x00, 0x00, 0x01, 0x00, 0x00, 0x00, 0x80, 0xff, 0xff, 0xff,
    0xff, 0xff, 0xff, 0xff, 0x00, 0x00, 0x00, 0x00, 0x01, 0x00, 0x00, 0x00,
    0x23, 0x11, 0x64, 0x3d, 0x16, 0x01, 0x00, 0x00, 0x73, 0x65, 0x71, 0x75,
    0x65, 0x6e, 0x74, 0x69, 0x61, 0x6c, 0x5f, 0x31, 0x2f, 0x72, 0x65, 0x5f,
    0x6c, 0x75, 0x5f, 0x31, 0x5f, 0x32, 0x2f, 0x52, 0x65, 0x6c, 0x75, 0x3b,
    0x73, 0x65, 0x71, 0x75, 0x65, 0x6e, 0x74, 0x69, 0x61, 0x6c, 0x5f, 0x31,
    0x2f, 0x62, 0x61, 0x74, 0x63, 0x68, 0x5f, 0x6e, 0x6f, 0x72, 0x6d, 0x61,
    0x6c, 0x69, 0x7a, 0x61, 0x74, 0x69, 0x6f, 0x6e, 0x5f, 0x31, 0x5f, 0x32,
    0x2f, 0x62, 0x61, 0x74, 0x63, 0x68, 0x6e, 0x6f, 0x72, 0x6d, 0x2f, 0x61,
    0x64, 0x64, 0x5f, 0x31, 0x3b, 0x73, 0x65, 0x71, 0x75, 0x65, 0x6e, 0x74,
    0x69, 0x61, 0x6c, 0x5f, 0x31, 0x2f, 0x62, 0x61, 0x74, 0x63, 0x68, 0x5f,
    0x6e, 0x6f, 0x72, 0x6d, 0x61, 0x6c, 0x69, 0x7a, 0x61, 0x74, 0x69, 0x6f,
    0x6e, 0x5f, 0x31, 0x5f, 0x32, 0x2f, 0x62, 0x61, 0x74, 0x63, 0x68, 0x6e,
    0x6f, 0x72, 0x6d, 0x2f, 0x6d, 0x75, 0x6c, 0x5f, 0x31, 0x3b, 0x73, 0x65,
    0x71, 0x75, 0x65, 0x6e, 0x74, 0x69, 0x61, 0x6c, 0x5f, 0x31, 0x2f, 0x64,
    0x65, 0x70, 0x74, 0x68, 0x77, 0x69, 0x73, 0x65, 0x5f, 0x63, 0x6f, 0x6e,
    0x76, 0x32, 0x64, 0x5f, 0x31, 0x2f, 0x64, 0x65, 0x70, 0x74, 0x68, 0x77,
    0x69, 0x73, 0x65, 0x3b, 0x73, 0x65, 0x71, 0x75, 0x65, 0x6e, 0x74, 0x69,
    0x61, 0x6c, 0x5f, 0x31, 0x2f, 0x62, 0x61, 0x74, 0x63, 0x68, 0x5f, 0x6e,
    0x6f, 0x72, 0x6d, 0x61, 0x6c, 0x69, 0x7a, 0x61, 0x74, 0x69, 0x6f, 0x6e,
    0x5f, 0x31, 0x5f, 0x32, 0x2f, 0x62, 0x61, 0x74, 0x63, 0x68, 0x6e, 0x6f,
    0x72, 0x6d, 0x2f, 0x6d, 0x75, 0x6c, 0x3b, 0x73, 0x65, 0x71, 0x75, 0x65,
    0x6e, 0x74, 0x69, 0x61, 0x6c, 0x5f, 0x31, 0x2f, 0x62, 0x61, 0x74, 0x63,
    0x68, 0x5f, 0x6e, 0x6f, 0x72, 0x6d, 0x61, 0x6c, 0x69, 0x7a, 0x61, 0x74,
    0x69, 0x6f, 0x6e, 0x5f, 0x31, 0x5f, 0x32, 0x2f, 0x62, 0x61, 0x74, 0x63,
    0x68, 0x6e, 0x6f, 0x72, 0x6d, 0x2f, 0x73, 0x75, 0x62, 0x31, 0x00, 0x00,
    0x04, 0x00, 0x00, 0x00, 0x01, 0x00, 0x00, 0x00, 0x10, 0x00, 0x00, 0x00,
    0x10, 0x00, 0x00, 0x00, 0x10, 0x00, 0x00, 0x00, 0xaa, 0xe8, 0xff, 0xff,
    0x00, 0x00, 0x00, 0x01, 0x18, 0x00, 0x00, 0x00, 0x28, 0x00, 0x00, 0x00,
    0x44, 0x00, 0x00, 0x00, 0x0f, 0x00, 0x00, 0x00, 0x00, 0x00, 0x00, 0x09,
    0xe0, 0x00, 0x00, 0x00, 0x04, 0x00, 0x00, 0x00, 0xff, 0xff, 0xff, 0xff,
    0x20, 0x00, 0x00, 0x00, 0x20, 0x00, 0x00, 0x00, 0x10, 0x00, 0x00, 0x00,
    0x94, 0xe8, 0xff, 0xff, 0x08, 0x00, 0x00, 0x00, 0x10, 0x00, 0x00, 0x00,
    0x01, 0x00, 0x00, 0x00, 0x80, 0xff, 0xff, 0xff, 0xff, 0xff, 0xff, 0xff,
    0x01, 0x00, 0x00, 0x00, 0xb4, 0x95, 0xec, 0x3c, 0xa0, 0x00, 0x00, 0x00,
    0x73, 0x65, 0x71, 0x75, 0x65, 0x6e, 0x74, 0x69, 0x61, 0x6c, 0x5f, 0x31,
    0x2f, 0x72, 0x65, 0x5f, 0x6c, 0x75, 0x5f, 0x31, 0x2f, 0x52, 0x65, 0x6c,
    0x75, 0x3b, 0x73, 0x65, 0x71, 0x75, 0x65, 0x6e, 0x74, 0x69, 0x61, 0x6c,
    0x5f, 0x31, 0x2f, 0x62, 0x61, 0x74, 0x63, 0x68, 0x5f, 0x6e, 0x6f, 0x72,
    0x6d, 0x61, 0x6c, 0x69, 0x7a, 0x61, 0x74, 0x69, 0x6f, 0x6e, 0x5f, 0x31,
    0x2f, 0x62, 0x61, 0x74, 0x63, 0x68, 0x6e, 0x6f, 0x72, 0x6d, 0x2f, 0x61,
    0x64, 0x64, 0x5f, 0x31, 0x3b, 0x73, 0x65, 0x71, 0x75, 0x65, 0x6e, 0x74,
    0x69, 0x61, 0x6c, 0x5f, 0x31, 0x2f, 0x63, 0x6f, 0x6e, 0x76, 0x32, 0x64,
    0x5f, 0x31, 0x2f, 0x63, 0x6f, 0x6e, 0x76, 0x6f, 0x6c, 0x75, 0x74, 0x69,
    0x6f, 0x6e, 0x3b, 0x73, 0x65, 0x71, 0x75, 0x65, 0x6e, 0x74, 0x69, 0x61,
    0x6c, 0x5f, 0x31, 0x2f, 0x62, 0x61, 0x74, 0x63, 0x68, 0x5f, 0x6e, 0x6f,
    0x72, 0x6d, 0x61, 0x6c, 0x69, 0x7a, 0x61, 0x74, 0x69, 0x6f, 0x6e, 0x5f,
    0x31, 0x2f, 0x62, 0x61, 0x74, 0x63, 0x68, 0x6e, 0x6f, 0x72, 0x6d, 0x2f,
    0x73, 0x75, 0x62, 0x31, 0x00, 0x00, 0x00, 0x00, 0x04, 0x00, 0x00, 0x00,
    0x01, 0x00, 0x00, 0x00, 0x20, 0x00, 0x00, 0x00, 0x20, 0x00, 0x00, 0x00,
    0x10, 0x00, 0x00, 0x00, 0x42, 0xea, 0xff, 0xff, 0x00, 0x00, 0x00, 0x01,
    0x14, 0x00, 0x00, 0x00, 0xe8, 0x00, 0x00, 0x00, 0x0e, 0x00, 0x00, 0x00,
    0x00, 0x00, 0x00, 0x09, 0x04, 0x01, 0x00, 0x00, 0x8c, 0xe9, 0xff, 0xff,
    0x08, 0x00, 0x00, 0x00, 0x8c, 0x00, 0x00, 0x00, 0x10, 0x00, 0x00, 0x00,
    0x00, 0x00, 0x00, 0x00, 0x00, 0x00, 0x00, 0x00, 0x00, 0x00, 0x00, 0x00,
    0x00, 0x00, 0x00, 0x00, 0x00, 0x00, 0x00, 0x00, 0x00, 0x00, 0x00, 0x00,
    0x00, 0x00, 0x00, 0x00, 0x00, 0x00, 0x00, 0x00, 0x00, 0x00, 0x00, 0x00,
    0x00, 0x00, 0x00, 0x00, 0x00, 0x00, 0x00, 0x00, 0x00, 0x00, 0x00, 0x00,
    0x00, 0x00, 0x00, 0x00, 0x00, 0x00, 0x00, 0x00, 0x00, 0x00, 0x00, 0x00,
    0x00, 0x00, 0x00, 0x00, 0x00, 0x00, 0x00, 0x00, 0x00, 0x00, 0x00, 0x00,
    0x00, 0x00, 0x00, 0x00, 0x00, 0x00, 0x00, 0x00, 0x00, 0x00, 0x00, 0x00,
    0x00, 0x00, 0x00, 0x00, 0x00, 0x00, 0x00, 0x00, 0x00, 0x00, 0x00, 0x00,
    0x00, 0x00, 0x00, 0x00, 0x00, 0x00, 0x00, 0x00, 0x00, 0x00, 0x00, 0x00,
    0x00, 0x00, 0x00, 0x00, 0x00, 0x00, 0x00, 0x00, 0x00, 0x00, 0x00, 0x00,
    0x00, 0x00, 0x00, 0x00, 0x00, 0x00, 0x00, 0x00, 0x00, 0x00, 0x00, 0x00,
    0x10, 0x00, 0x00, 0x00, 0xa5, 0x0b, 0xee, 0x3b, 0xa3, 0x13, 0x3f, 0x3c,
    0x87, 0xb2, 0xdd, 0x3c, 0x5e, 0x3e, 0xb3, 0x3b, 0x30, 0x7a, 0x38, 0x3c,
    0xd4, 0xfe, 0xd4, 0x3c, 0x0b, 0xbc, 0x99, 0x3c, 0x00, 0x45, 0x9c, 0x3b,
    0x46, 0xa2, 0x6d, 0x3c, 0x05, 0x4c, 0xcc, 0x3c, 0xcf, 0x0f, 0x85, 0x3c,
    0x47, 0xcb, 0x1b, 0x3c, 0x2f, 0x65, 0x62, 0x3c, 0x54, 0x31, 0xfc, 0x3b,
    0xd3, 0xfb, 0x10, 0x3c, 0x2d, 0xcc, 0xe0, 0x3c, 0x21, 0x00, 0x00, 0x00,
    0x73, 0x65, 0x71, 0x75, 0x65, 0x6e, 0x74, 0x69, 0x61, 0x6c, 0x5f, 0x31,
    0x2f, 0x63, 0x6f, 0x6e, 0x76, 0x32, 0x64, 0x5f, 0x31, 0x2f, 0x63, 0x6f,
    0x6e, 0x76, 0x6f, 0x6c, 0x75, 0x74, 0x69, 0x6f, 0x6e, 0x00, 0x00, 0x00,
    0x04, 0x00, 0x00, 0x00, 0x10, 0x00, 0x00, 0x00, 0x03, 0x00, 0x00, 0x00,
    0x03, 0x00, 0x00, 0x00, 0x01, 0x00, 0x00, 0x00, 0x72, 0xeb, 0xff, 0xff,
    0x00, 0x00, 0x00, 0x01, 0x14, 0x00, 0x00, 0x00, 0xe4, 0x00, 0x00, 0x00,
    0x0d, 0x00, 0x00, 0x00, 0x00, 0x00, 0x00, 0x02, 0x7c, 0x01, 0x00, 0x00,
    0xbc, 0xea, 0xff, 0xff, 0x08, 0x00, 0x00, 0x00, 0x88, 0x00, 0x00, 0x00,
    0x10, 0x00, 0x00, 0x00, 0x00, 0x00, 0x00, 0x00, 0x00, 0x00, 0x00, 0x00,
    0x00, 0x00, 0x00, 0x00, 0x00, 0x00, 0x00, 0x00, 0x00, 0x00, 0x00, 0x00,
    0x00, 0x00, 0x00, 0x00, 0x00, 0x00, 0x00, 0x00, 0x00, 0x00, 0x00, 0x00,
    0x00, 0x00, 0x00, 0x00, 0x00, 0x00, 0x00, 0x00, 0x00, 0x00, 0x00, 0x00,
    0x00, 0x00, 0x00, 0x00, 0x00, 0x00, 0x00, 0x00, 0x00, 0x00, 0x00, 0x00,
    0x00, 0x00, 0x00, 0x00, 0x00, 0x00, 0x00, 0x00, 0x00, 0x00, 0x00, 0x00,
    0x00, 0x00, 0x00, 0x00, 0x00, 0x00, 0x00, 0x00, 0x00, 0x00, 0x00, 0x00,
    0x00, 0x00, 0x00, 0x00, 0x00, 0x00, 0x00, 0x00, 0x00, 0x00, 0x00, 0x00,
    0x00, 0x00, 0x00, 0x00, 0x00, 0x00, 0x00, 0x00, 0x00, 0x00, 0x00, 0x00,
    0x00, 0x00, 0x00, 0x00, 0x00, 0x00, 0x00, 0x00, 0x00, 0x00, 0x00, 0x00,
    0x00, 0x00, 0x00, 0x00, 0x00, 0x00, 0x00, 0x00, 0x00, 0x00, 0x00, 0x00,
    0x10, 0x00, 0x00, 0x00, 0xa1, 0xfa, 0xee, 0x37, 0x77, 0xd3, 0x3f, 0x38,
    0x19, 0x91, 0xde, 0x38, 0x51, 0xf2, 0xb3, 0x37, 0x64, 0x33, 0x39, 0x38,
    0xa9, 0xd4, 0xd5, 0x38, 0x62, 0x56, 0x9a, 0x38, 0xe2, 0xe1, 0x9c, 0x37,
    0xd8, 0x90, 0x6e, 0x38, 0x1f, 0x19, 0xcd, 0x38, 0x65, 0x95, 0x85, 0x38,
    0xaf, 0x67, 0x1c, 0x38, 0x78, 0x48, 0x63, 0x38, 0x83, 0x2e, 0xfd, 0x37,
    0x61, 0x8d, 0x11, 0x38, 0xdc, 0xad, 0xe1, 0x38, 0x9f, 0x00, 0x00, 0x00,
    0x73, 0x65, 0x71, 0x75, 0x65, 0x6e, 0x74, 0x69, 0x61, 0x6c, 0x5f, 0x31,
    0x2f, 0x72, 0x65, 0x5f, 0x6c, 0x75, 0x5f, 0x31, 0x2f, 0x52, 0x65, 0x6c,
    0x75, 0x3b, 0x73, 0x65, 0x71, 0x75, 0x65, 0x6e, 0x74, 0x69, 0x61, 0x6c,
    0x5f, 0x31, 0x2f, 0x62, 0x61, 0x74, 0x63, 0x68, 0x5f, 0x6e, 0x6f, 0x72,
    0x6d, 0x61, 0x6c, 0x69, 0x7a, 0x61, 0x74, 0x69, 0x6f, 0x6e, 0x5f, 0x31,
    0x2f, 0x62, 0x61, 0x74, 0x63, 0x68, 0x6e, 0x6f, 0x72, 0x6d, 0x2f, 0x61,
    0x64, 0x64, 0x5f, 0x31, 0x3b, 0x73, 0x65, 0x71, 0x75, 0x65, 0x6e, 0x74,
    0x69, 0x61, 0x6c, 0x5f, 0x31, 0x2f, 0x63, 0x6f, 0x6e, 0x76, 0x32, 0x64,
    0x5f, 0x31, 0x2f, 0x63, 0x6f, 0x6e, 0x76, 0x6f, 0x6c, 0x75, 0x74, 0x69,
    0x6f, 0x6e, 0x3b, 0x73, 0x65, 0x71, 0x75, 0x65, 0x6e, 0x74, 0x69, 0x61,
    0x6c, 0x5f, 0x31, 0x2f, 0x62, 0x61, 0x74, 0x63, 0x68, 0x5f, 0x6e, 0x6f,
    0x72, 0x6d, 0x61, 0x6c, 0x69, 0x7a, 0x61, 0x74, 0x69, 0x6f, 0x6e, 0x5f,
    0x31, 0x2f, 0x62, 0x61, 0x74, 0x63, 0x68, 0x6e, 0x6f, 0x72, 0x6d, 0x2f,
    0x73, 0x75, 0x62, 0x00, 0x01, 0x00, 0x00, 0x00, 0x10, 0x00, 0x00, 0x00,
    0x0e, 0xed, 0xff, 0xff, 0x00, 0x00, 0x00, 0x01, 0x14, 0x00, 0x00, 0x00,
    0xec, 0x00, 0x00, 0x00, 0x0c, 0x00, 0x00, 0x00, 0x00, 0x00, 0x00, 0x09,
    0x78, 0x01, 0x00, 0x00, 0xd2, 0xf7, 0xff, 0xff, 0x03, 0x00, 0x00, 0x00,
    0x08, 0x00, 0x00, 0x00, 0x8c, 0x00, 0x00, 0x00, 0x10, 0x00, 0x00, 0x00,
    0x00, 0x00, 0x00, 0x00, 0x00, 0x00, 0x00, 0x00, 0x00, 0x00, 0x00, 0x00,
    0x00, 0x00, 0x00, 0x00, 0x00, 0x00, 0x00, 0x00, 0x00, 0x00, 0x00, 0x00,
    0x00, 0x00, 0x00, 0x00, 0x00, 0x00, 0x00, 0x00, 0x00, 0x00, 0x00, 0x00,
    0x00, 0x00, 0x00, 0x00, 0x00, 0x00, 0x00, 0x00, 0x00, 0x00, 0x00, 0x00,
    0x00, 0x00, 0x00, 0x00, 0x00, 0x00, 0x00, 0x00, 0x00, 0x00, 0x00, 0x00,
    0x00, 0x00, 0x00, 0x00, 0x00, 0x00, 0x00, 0x00, 0x00, 0x00, 0x00, 0x00,
    0x00, 0x00, 0x00, 0x00, 0x00, 0x00, 0x00, 0x00, 0x00, 0x00, 0x00, 0x00,
    0x00, 0x00, 0x00, 0x00, 0x00, 0x00, 0x00, 0x00, 0x00, 0x00, 0x00, 0x00,
    0x00, 0x00, 0x00, 0x00, 0x00, 0x00, 0x00, 0x00, 0x00, 0x00, 0x00, 0x00,
    0x00, 0x00, 0x00, 0x00, 0x00, 0x00, 0x00, 0x00, 0x00, 0x00, 0x00, 0x00,
    0x00, 0x00, 0x00, 0x00, 0x00, 0x00, 0x00, 0x00, 0x00, 0x00, 0x00, 0x00,
    0x10, 0x00, 0x00, 0x00, 0xe4, 0xe2, 0x58, 0x3c, 0x0e, 0xfd, 0x1e, 0x3d,
    0xe3, 0xfe, 0xed, 0x3c, 0x81, 0x55, 0x19, 0x3c, 0x7a, 0x88, 0x32, 0x3c,
    0xc4, 0x77, 0xa7, 0x3b, 0x6c, 0xde, 0x20, 0x3c, 0xcb, 0x7a, 0x5a, 0x3c,
    0xb5, 0x26, 0x8c, 0x3b, 0x9a, 0x59, 0xd2, 0x3b, 0x9b, 0x1c, 0x21, 0x3c,
    0xc4, 0x84, 0x84, 0x3c, 0x0b, 0xeb, 0x48, 0x3d, 0x91, 0x71, 0x74, 0x3c,
    0x2e, 0xf9, 0x69, 0x3d, 0xe0, 0xbb, 0x3e, 0x3c, 0x91, 0x00, 0x00, 0x00,
    0x73, 0x65, 0x71, 0x75, 0x65, 0x6e, 0x74, 0x69, 0x61, 0x6c, 0x5f, 0x31,
    0x2f, 0x62, 0x61, 0x74, 0x63, 0x68, 0x5f, 0x6e, 0x6f, 0x72, 0x6d, 0x61,
    0x6c, 0x69, 0x7a, 0x61, 0x74, 0x69, 0x6f, 0x6e, 0x5f, 0x31, 0x5f, 0x32,
    0x2f, 0x62, 0x61, 0x74, 0x63, 0x68, 0x6e, 0x6f, 0x72, 0x6d, 0x2f, 0x6d,
    0x75, 0x6c, 0x5f, 0x31, 0x3b, 0x73, 0x65, 0x71, 0x75, 0x65, 0x6e, 0x74,
    0x69, 0x61, 0x6c, 0x5f, 0x31, 0x2f, 0x64, 0x65, 0x70, 0x74, 0x68, 0x77,
    0x69, 0x73, 0x65, 0x5f, 0x63, 0x6f, 0x6e, 0x76, 0x32, 0x64, 0x5f, 0x31,
    0x2f, 0x64, 0x65, 0x70, 0x74, 0x68, 0x77, 0x69, 0x73, 0x65, 0x3b, 0x73,
    0x65, 0x71, 0x75, 0x65, 0x6e, 0x74, 0x69, 0x61, 0x6c, 0x5f, 0x31, 0x2f,
    0x62, 0x61, 0x74, 0x63, 0x68, 0x5f, 0x6e, 0x6f, 0x72, 0x6d, 0x61, 0x6c,
    0x69, 0x7a, 0x61, 0x74, 0x69, 0x6f, 0x6e, 0x5f, 0x31, 0x5f, 0x32, 0x2f,
    0x62, 0x61, 0x74, 0x63, 0x68, 0x6e, 0x6f, 0x72, 0x6d, 0x2f, 0x6d, 0x75,
    0x6c, 0x00, 0x00, 0x00, 0x04, 0x00, 0x00, 0x00, 0x01, 0x00, 0x00, 0x00,
    0x03, 0x00, 0x00, 0x00, 0x03, 0x00, 0x00, 0x00, 0x10, 0x00, 0x00, 0x00,
    0xb2, 0xee, 0xff, 0xff, 0x00, 0x00, 0x00, 0x01, 0x14, 0x00, 0x00, 0x00,
    0xe8, 0x00, 0x00, 0x00, 0x0b, 0x00, 0x00, 0x00, 0x00, 0x00, 0x00, 0x02,
    0xf8, 0x01, 0x00, 0x00, 0xfc, 0xed, 0xff, 0xff, 0x08, 0x00, 0x00, 0x00,
    0x8c, 0x00, 0x00, 0x00, 0x10, 0x00, 0x00, 0x00, 0x00, 0x00, 0x00, 0x00,
    0x00, 0x00, 0x00, 0x00, 0x00, 0x00, 0x00, 0x00, 0x00, 0x00, 0x00, 0x00,
    0x00, 0x00, 0x00, 0x00, 0x00, 0x00, 0x00, 0x00, 0x00, 0x00, 0x00, 0x00,
    0x00, 0x00, 0x00, 0x00, 0x00, 0x00, 0x00, 0x00, 0x00, 0x00, 0x00, 0x00,
    0x00, 0x00, 0x00, 0x00, 0x00, 0x00, 0x00, 0x00, 0x00, 0x00, 0x00, 0x00,
    0x00, 0x00, 0x00, 0x00, 0x00, 0x00, 0x00, 0x00, 0x00, 0x00, 0x00, 0x00,
    0x00, 0x00, 0x00, 0x00, 0x00, 0x00, 0x00, 0x00, 0x00, 0x00, 0x00, 0x00,
    0x00, 0x00, 0x00, 0x00, 0x00, 0x00, 0x00, 0x00, 0x00, 0x00, 0x00, 0x00,
    0x00, 0x00, 0x00, 0x00, 0x00, 0x00, 0x00, 0x00, 0x00, 0x00, 0x00, 0x00,
    0x00, 0x00, 0x00, 0x00, 0x00, 0x00, 0x00, 0x00, 0x00, 0x00, 0x00, 0x00,
    0x00, 0x00, 0x00, 0x00, 0x00, 0x00, 0x00, 0x00, 0x00, 0x00, 0x00, 0x00,
    0x00, 0x00, 0x00, 0x00, 0x00, 0x00, 0x00, 0x00, 0x10, 0x00, 0x00, 0x00,
    0xff, 0x6f, 0xc8, 0x39, 0x42, 0xee, 0x92, 0x3a, 0x26, 0xf2, 0x5b, 0x3a,
    0x7e, 0xb4, 0x8d, 0x39, 0x37, 0xfe, 0xa4, 0x39, 0x57, 0xc4, 0x1a, 0x39,
    0x1e, 0xab, 0x94, 0x39, 0xf6, 0xe8, 0xc9, 0x39, 0xa4, 0x85, 0x01, 0x39,
    0x9c, 0x65, 0x42, 0x39, 0x96, 0xe4, 0x94, 0x39, 0xc6, 0xef, 0xf4, 0x39,
    0x2c, 0xae, 0xb9, 0x3a, 0xa4, 0xe7, 0xe1, 0x39, 0x89, 0x3a, 0xd8, 0x3a,
    0xbc, 0x44, 0xb0, 0x39, 0x15, 0x01, 0x00, 0x00, 0x73, 0x65, 0x71, 0x75,
    0x65, 0x6e, 0x74, 0x69, 0x61, 0x6c, 0x5f, 0x31, 0x2f, 0x72, 0x65, 0x5f,
    0x6c, 0x75, 0x5f, 0x31, 0x5f, 0x32, 0x2f, 0x52, 0x65, 0x6c, 0x75, 0x3b,
    0x73, 0x65, 0x71, 0x75, 0x65, 0x6e, 0x74, 0x69, 0x61, 0x6c, 0x5f, 0x31,
    0x2f, 0x62, 0x61, 0x74, 0x63, 0x68, 0x5f, 0x6e, 0x6f, 0x72, 0x6d, 0x61,
    0x6c, 0x69, 0x7a, 0x61, 0x74, 0x69, 0x6f, 0x6e, 0x5f, 0x31, 0x5f, 0x32,
    0x2f, 0x62, 0x61, 0x74, 0x63, 0x68, 0x6e, 0x6f, 0x72, 0x6d, 0x2f, 0x61,
    0x64, 0x64, 0x5f, 0x31, 0x3b, 0x73, 0x65, 0x71, 0x75, 0x65, 0x6e, 0x74,
    0x69, 0x61, 0x6c, 0x5f, 0x31, 0x2f, 0x62, 0x61, 0x74, 0x63, 0x68, 0x5f,
    0x6e, 0x6f, 0x72, 0x6d, 0x61, 0x6c, 0x69, 0x7a, 0x61, 0x74, 0x69, 0x6f,
    0x6e, 0x5f, 0x31, 0x5f, 0x32, 0x2f, 0x62, 0x61, 0x74, 0x63, 0x68, 0x6e,
    0x6f, 0x72, 0x6d, 0x2f, 0x6d, 0x75, 0x6c, 0x5f, 0x31, 0x3b, 0x73, 0x65,
    0x71, 0x75, 0x65, 0x6e, 0x74, 0x69, 0x61, 0x6c, 0x5f, 0x31, 0x2f, 0x64,
    0x65, 0x70, 0x74, 0x68, 0x77, 0x69, 0x73, 0x65, 0x5f, 0x63, 0x6f, 0x6e,
    0x76, 0x32, 0x64, 0x5f, 0x31, 0x2f, 0x64, 0x65, 0x70, 0x74, 0x68, 0x77,
    0x69, 0x73, 0x65, 0x3b, 0x73, 0x65, 0x71, 0x75, 0x65, 0x6e, 0x74, 0x69,
    0x61, 0x6c, 0x5f, 0x31, 0x2f, 0x62, 0x61, 0x74, 0x63, 0x68, 0x5f, 0x6e,
    0x6f, 0x72, 0x6d, 0x61, 0x6c, 0x69, 0x7a, 0x61, 0x74, 0x69, 0x6f, 0x6e,
    0x5f, 0x31, 0x5f, 0x32, 0x2f, 0x62, 0x61, 0x74, 0x63, 0x68, 0x6e, 0x6f,
    0x72, 0x6d, 0x2f, 0x6d, 0x75, 0x6c, 0x3b, 0x73, 0x65, 0x71, 0x75, 0x65,
    0x6e, 0x74, 0x69, 0x61, 0x6c, 0x5f, 0x31, 0x2f, 0x62, 0x61, 0x74, 0x63,
    0x68, 0x5f, 0x6e, 0x6f, 0x72, 0x6d, 0x61, 0x6c, 0x69, 0x7a, 0x61, 0x74,
    0x69, 0x6f, 0x6e, 0x5f, 0x31, 0x5f, 0x32, 0x2f, 0x62, 0x61, 0x74, 0x63,
    0x68, 0x6e, 0x6f, 0x72, 0x6d, 0x2f, 0x73, 0x75, 0x62, 0x00, 0x00, 0x00,
    0x01, 0x00, 0x00, 0x00, 0x10, 0x00, 0x00, 0x00, 0xca, 0xf0, 0xff, 0xff,
    0x00, 0x00, 0x00, 0x01, 0x14, 0x00, 0x00, 0x00, 0xa8, 0x01, 0x00, 0x00,
    0x0a, 0x00, 0x00, 0x00, 0x00, 0x00, 0x00, 0x09, 0xc4, 0x01, 0x00, 0x00,
    0x14, 0xf0, 0xff, 0xff, 0x08, 0x00, 0x00, 0x00, 0x0c, 0x01, 0x00, 0x00,
    0x20, 0x00, 0x00, 0x00, 0x00, 0x00, 0x00, 0x00, 0x00, 0x00, 0x00, 0x00,
    0x00, 0x00, 0x00, 0x00, 0x00, 0x00, 0x00, 0x00, 0x00, 0x00, 0x00, 0x00,
    0x00, 0x00, 0x00, 0x00, 0x00, 0x00, 0x00, 0x00, 0x00, 0x00, 0x00, 0x00,
    0x00, 0x00, 0x00, 0x00, 0x00, 0x00, 0x00, 0x00, 0x00, 0x00, 0x00, 0x00,
    0x00, 0x00, 0x00, 0x00, 0x00, 0x00, 0x00, 0x00, 0x00, 0x00, 0x00, 0x00,
    0x00, 0x00, 0x00, 0x00, 0x00, 0x00, 0x00, 0x00, 0x00, 0x00, 0x00, 0x00,
    0x00, 0x00, 0x00, 0x00, 0x00, 0x00, 0x00, 0x00, 0x00, 0x00, 0x00, 0x00,
    0x00, 0x00, 0x00, 0x00, 0x00, 0x00, 0x00, 0x00, 0x00, 0x00, 0x00, 0x00,
    0x00, 0x00, 0x00, 0x00, 0x00, 0x00, 0x00, 0x00, 0x00, 0x00, 0x00, 0x00,
    0x00, 0x00, 0x00, 0x00, 0x00, 0x00, 0x00, 0x00, 0x00, 0x00, 0x00, 0x00,
    0x00, 0x00, 0x00, 0x00, 0x00, 0x00, 0x00, 0x00, 0x00, 0x00, 0x00, 0x00,
    0x00, 0x00, 0x00, 0x00, 0x00, 0x00, 0x00, 0x00, 0x00, 0x00, 0x00, 0x00,
    0x00, 0x00, 0x00, 0x00, 0x00, 0x00, 0x00, 0x00, 0x00, 0x00, 0x00, 0x00,
    0x00, 0x00, 0x00, 0x00, 0x00, 0x00, 0x00, 0x00, 0x00, 0x00, 0x00, 0x00,
    0x00, 0x00, 0x00, 0x00, 0x00, 0x00, 0x00, 0x00, 0x00, 0x00, 0x00, 0x00,
    0x00, 0x00, 0x00, 0x00, 0x00, 0x00, 0x00, 0x00, 0x00, 0x00, 0x00, 0x00,
    0x00, 0x00, 0x00, 0x00, 0x00, 0x00, 0x00, 0x00, 0x00, 0x00, 0x00, 0x00,
    0x00, 0x00, 0x00, 0x00, 0x00, 0x00, 0x00, 0x00, 0x00, 0x00, 0x00, 0x00,
    0x00, 0x00, 0x00, 0x00, 0x00, 0x00, 0x00, 0x00, 0x00, 0x00, 0x00, 0x00,
    0x00, 0x00, 0x00, 0x00, 0x00, 0x00, 0x00, 0x00, 0x00, 0x00, 0x00, 0x00,
    0x00, 0x00, 0x00, 0x00, 0x00, 0x00, 0x00, 0x00, 0x00, 0x00, 0x00, 0x00,
    0x00, 0x00, 0x00, 0x00, 0x00, 0x00, 0x00, 0x00, 0x00, 0x00, 0x00, 0x00,
    0x20, 0x00, 0x00, 0x00, 0x22, 0xe9, 0x15, 0x3c, 0x30, 0x19, 0x94, 0x3b,
    0x41, 0xd3, 0xbd, 0x3b, 0x52, 0x37, 0x8d, 0x3b, 0xe3, 0xab, 0xbe, 0x3b,
    0x36, 0xf0, 0xce, 0x3b, 0x62, 0xbf, 0xa3, 0x3b, 0x0b, 0x0f, 0xaf, 0x3b,
    0xef, 0x65, 0x42, 0x3b, 0x79, 0xb2, 0x58, 0x3b, 0xcc, 0x6b, 0xde, 0x3b,
    0xe7, 0x5a, 0x84, 0x3b, 0xeb, 0xcd, 0x04, 0x3c, 0xa1, 0x53, 0x0f, 0x3c,
    0x5a, 0xbf, 0xdb, 0x3b, 0xab, 0x29, 0x90, 0x3b, 0x81, 0x32, 0x86, 0x3b,
    0x7f, 0x9a, 0xaa, 0x3b, 0x58, 0x19, 0x03, 0x3c, 0xf4, 0xd0, 0x8a, 0x3b,
    0x34, 0x62, 0x94, 0x3b, 0x2e, 0x08, 0x2e, 0x3b, 0xa5, 0xc4, 0x93, 0x3b,
    0xfb, 0xd5, 0x5d, 0x3b, 0xc2, 0x31, 0xc5, 0x3b, 0x3c, 0xcd, 0x96, 0x3b,
    0xde, 0xd6, 0x16, 0x3c, 0xc7, 0x15, 0xd3, 0x3b, 0xb9, 0x12, 0xfb, 0x3b,
    0x43, 0xc8, 0xd8, 0x3b, 0xe8, 0xe8, 0xa5, 0x3b, 0xd4, 0xca, 0xa7, 0x3b,
    0x23, 0x00, 0x00, 0x00, 0x73, 0x65, 0x71, 0x75, 0x65, 0x6e, 0x74, 0x69,
    0x61, 0x6c, 0x5f, 0x31, 0x2f, 0x63, 0x6f, 0x6e, 0x76, 0x32, 0x64, 0x5f,
    0x31, 0x5f, 0x32, 0x2f, 0x63, 0x6f, 0x6e, 0x76, 0x6f, 0x6c, 0x75, 0x74,
    0x69, 0x6f, 0x6e, 0x00, 0x04, 0x00, 0x00, 0x00, 0x20, 0x00, 0x00, 0x00,
    0x01, 0x00, 0x00, 0x00, 0x01, 0x00, 0x00, 0x00, 0x10, 0x00, 0x00, 0x00,
    0xba, 0xf2, 0xff, 0xff, 0x00, 0x00, 0x00, 0x01, 0x14, 0x00, 0x00, 0x00,
    0xa8, 0x01, 0x00, 0x00, 0x09, 0x00, 0x00, 0x00, 0x00, 0x00, 0x00, 0x02,
    0x48, 0x02, 0x00, 0x00, 0x04, 0xf2, 0xff, 0xff, 0x08, 0x00, 0x00, 0x00,
    0x0c, 0x01, 0x00, 0x00, 0x20, 0x00, 0x00, 0x00, 0x00, 0x00, 0x00, 0x00,
    0x00, 0x00, 0x00, 0x00, 0x00, 0x00, 0x00, 0x00, 0x00, 0x00, 0x00, 0x00,
    0x00, 0x00, 0x00, 0x00, 0x00, 0x00, 0x00, 0x00, 0x00, 0x00, 0x00, 0x00,
    0x00, 0x00, 0x00, 0x00, 0x00, 0x00, 0x00, 0x00, 0x00, 0x00, 0x00, 0x00,
    0x00, 0x00, 0x00, 0x00, 0x00, 0x00, 0x00, 0x00, 0x00, 0x00, 0x00, 0x00,
    0x00, 0x00, 0x00, 0x00, 0x00, 0x00, 0x00, 0x00, 0x00, 0x00, 0x00, 0x00,
    0x00, 0x00, 0x00, 0x00, 0x00, 0x00, 0x00, 0x00, 0x00, 0x00, 0x00, 0x00,
    0x00, 0x00, 0x00, 0x00, 0x00, 0x00, 0x00, 0x00, 0x00, 0x00, 0x00, 0x00,
    0x00, 0x00, 0x00, 0x00, 0x00, 0x00, 0x00, 0x00, 0x00, 0x00, 0x00, 0x00,
    0x00, 0x00, 0x00, 0x00, 0x00, 0x00, 0x00, 0x00, 0x00, 0x00, 0x00, 0x00,
    0x00, 0x00, 0x00, 0x00, 0x00, 0x00, 0x00, 0x00, 0x00, 0x00, 0x00, 0x00,
    0x00, 0x00, 0x00, 0x00, 0x00, 0x00, 0x00, 0x00, 0x00, 0x00, 0x00, 0x00,
    0x00, 0x00, 0x00, 0x00, 0x00, 0x00, 0x00, 0x00, 0x00, 0x00, 0x00, 0x00,
    0x00, 0x00, 0x00, 0x00, 0x00, 0x00, 0x00, 0x00, 0x00, 0x00, 0x00, 0x00,
    0x00, 0x00, 0x00, 0x00, 0x00, 0x00, 0x00, 0x00, 0x00, 0x00, 0x00, 0x00,
    0x00, 0x00, 0x00, 0x00, 0x00, 0x00, 0x00, 0x00, 0x00, 0x00, 0x00, 0x00,
    0x00, 0x00, 0x00, 0x00, 0x00, 0x00, 0x00, 0x00, 0x00, 0x00, 0x00, 0x00,
    0x00, 0x00, 0x00, 0x00, 0x00, 0x00, 0x00, 0x00, 0x00, 0x00, 0x00, 0x00,
    0x00, 0x00, 0x00, 0x00, 0x00, 0x00, 0x00, 0x00, 0x00, 0x00, 0x00, 0x00,
    0x00, 0x00, 0x00, 0x00, 0x00, 0x00, 0x00, 0x00, 0x00, 0x00, 0x00, 0x00,
    0x00, 0x00, 0x00, 0x00, 0x00, 0x00, 0x00, 0x00, 0x00, 0x00, 0x00, 0x00,
    0x00, 0x00, 0x00, 0x00, 0x00, 0x00, 0x00, 0x00, 0x00, 0x00, 0x00, 0x00,
    0x00, 0x00, 0x00, 0x00, 0x20, 0x00, 0x00, 0x00, 0xab, 0x8d, 0x05, 0x3a,
    0x59, 0xf0, 0x83, 0x39, 0xdb, 0x1c, 0xa9, 0x39, 0x72, 0x9d, 0x7b, 0x39,
    0xda, 0xdd, 0xa9, 0x39, 0xca, 0x5b, 0xb8, 0x39, 0x69, 0xe1, 0x91, 0x39,
    0x1e, 0xf5, 0x9b, 0x39, 0xcc, 0x2f, 0x2d, 0x39, 0x75, 0x0d, 0x41, 0x39,
    0xe5, 0x26, 0xc6, 0x39, 0xa4, 0xd3, 0x6b, 0x39, 0x92, 0xa0, 0xec, 0x39,
    0x27, 0x60, 0xff, 0x39, 0x22, 0xc5, 0xc3, 0x39, 0xc3, 0x6e, 0x80, 0x39,
    0xed, 0x1b, 0x6f, 0x39, 0x05, 0xfd, 0x97, 0x39, 0xb2, 0x96, 0xe9, 0x39,
    0xc8, 0x56, 0x77, 0x39, 0x65, 0x31, 0x84, 0x39, 0xef, 0x0a, 0x1b, 0x39,
    0x07, 0xa5, 0x83, 0x39, 0x6d, 0xa1, 0x45, 0x39, 0x84, 0xad, 0xaf, 0x39,
    0xe2, 0x58, 0x86, 0x39, 0x77, 0x61, 0x06, 0x3a, 0x87, 0x0d, 0xbc, 0x39,
    0x7b, 0xad, 0xdf, 0x39, 0xdf, 0x20, 0xc1, 0x39, 0x8a, 0xce, 0x93, 0x39,
    0xe0, 0x7b, 0x95, 0x39, 0xa7, 0x00, 0x00, 0x00, 0x73, 0x65, 0x71, 0x75,
    0x65, 0x6e, 0x74, 0x69, 0x61, 0x6c, 0x5f, 0x31, 0x2f, 0x72, 0x65, 0x5f,
    0x6c, 0x75, 0x5f, 0x32, 0x5f, 0x31, 0x2f, 0x52, 0x65, 0x6c, 0x75, 0x3b,
    0x73, 0x65, 0x71, 0x75, 0x65, 0x6e, 0x74, 0x69, 0x61, 0x6c, 0x5f, 0x31,
    0x2f, 0x62, 0x61, 0x74, 0x63, 0x68, 0x5f, 0x6e, 0x6f, 0x72, 0x6d, 0x61,
    0x6c, 0x69, 0x7a, 0x61, 0x74, 0x69, 0x6f, 0x6e, 0x5f, 0x32, 0x5f, 0x31,
    0x2f, 0x62, 0x61, 0x74, 0x63, 0x68, 0x6e, 0x6f, 0x72, 0x6d, 0x2f, 0x61,
    0x64, 0x64, 0x5f, 0x31, 0x3b, 0x73, 0x65, 0x71, 0x75, 0x65, 0x6e, 0x74,
    0x69, 0x61, 0x6c, 0x5f, 0x31, 0x2f, 0x63, 0x6f, 0x6e, 0x76, 0x32, 0x64,
    0x5f, 0x31, 0x5f, 0x32, 0x2f, 0x63, 0x6f, 0x6e, 0x76, 0x6f, 0x6c, 0x75,
    0x74, 0x69, 0x6f, 0x6e, 0x3b, 0x73, 0x65, 0x71, 0x75, 0x65, 0x6e, 0x74,
    0x69, 0x61, 0x6c, 0x5f, 0x31, 0x2f, 0x62, 0x61, 0x74, 0x63, 0x68, 0x5f,
    0x6e, 0x6f, 0x72, 0x6d, 0x61, 0x6c, 0x69, 0x7a, 0x61, 0x74, 0x69, 0x6f,
    0x6e, 0x5f, 0x32, 0x5f, 0x31, 0x2f, 0x62, 0x61, 0x74, 0x63, 0x68, 0x6e,
    0x6f, 0x72, 0x6d, 0x2f, 0x73, 0x75, 0x62, 0x00, 0x01, 0x00, 0x00, 0x00,
    0x20, 0x00, 0x00, 0x00, 0x00, 0x00, 0x16, 0x00, 0x1e, 0x00, 0x18, 0x00,
    0x17, 0x00, 0x10, 0x00, 0x0c, 0x00, 0x08, 0x00, 0x00, 0x00, 0x00, 0x00,
    0x00, 0x00, 0x07, 0x00, 0x16, 0x00, 0x00, 0x00, 0x00, 0x00, 0x00, 0x01,
    0x28, 0x00, 0x00, 0x00, 0xc0, 0x01, 0x00, 0x00, 0x08, 0x00, 0x00, 0x00,
    0x00, 0x00, 0x00, 0x09, 0x4c, 0x02, 0x00, 0x00, 0x00, 0x00, 0x12, 0x00,
    0x10, 0x00, 0x00, 0x00, 0x00, 0x00, 0x0c, 0x00, 0x08, 0x00, 0x00, 0x00,
    0x00, 0x00, 0x04, 0x00, 0x12, 0x00, 0x00, 0x00, 0x03, 0x00, 0x00, 0x00,
    0x08, 0x00, 0x00, 0x00, 0x0c, 0x01, 0x00, 0x00, 0x20, 0x00, 0x00, 0x00,
    0x00, 0x00, 0x00, 0x00, 0x00, 0x00, 0x00, 0x00, 0x00, 0x00, 0x00, 0x00,
    0x00, 0x00, 0x00, 0x00, 0x00, 0x00, 0x00, 0x00, 0x00, 0x00, 0x00, 0x00,
    0x00, 0x00, 0x00, 0x00, 0x00, 0x00, 0x00, 0x00, 0x00, 0x00, 0x00, 0x00,
    0x00, 0x00, 0x00, 0x00, 0x00, 0x00, 0x00, 0x00, 0x00, 0x00, 0x00, 0x00,
    0x00, 0x00, 0x00, 0x00, 0x00, 0x00, 0x00, 0x00, 0x00, 0x00, 0x00, 0x00,
    0x00, 0x00, 0x00, 0x00, 0x00, 0x00, 0x00, 0x00, 0x00, 0x00, 0x00, 0x00,
    0x00, 0x00, 0x00, 0x00, 0x00, 0x00, 0x00, 0x00, 0x00, 0x00, 0x00, 0x00,
    0x00, 0x00, 0x00, 0x00, 0x00, 0x00, 0x00, 0x00, 0x00, 0x00, 0x00, 0x00,
    0x00, 0x00, 0x00, 0x00, 0x00, 0x00, 0x00, 0x00, 0x00, 0x00, 0x00, 0x00,
    0x00, 0x00, 0x00, 0x00, 0x00, 0x00, 0x00, 0x00, 0x00, 0x00, 0x00, 0x00,
    0x00, 0x00, 0x00, 0x00, 0x00, 0x00, 0x00, 0x00, 0x00, 0x00, 0x00, 0x00,
    0x00, 0x00, 0x00, 0x00, 0x00, 0x00, 0x00, 0x00, 0x00, 0x00, 0x00, 0x00,
    0x00, 0x00, 0x00, 0x00, 0x00, 0x00, 0x00, 0x00, 0x00, 0x00, 0x00, 0x00,
    0x00, 0x00, 0x00, 0x00, 0x00, 0x00, 0x00, 0x00, 0x00, 0x00, 0x00, 0x00,
    0x00, 0x00, 0x00, 0x00, 0x00, 0x00, 0x00, 0x00, 0x00, 0x00, 0x00, 0x00,
    0x00, 0x00, 0x00, 0x00, 0x00, 0x00, 0x00, 0x00, 0x00, 0x00, 0x00, 0x00,
    0x00, 0x00, 0x00, 0x00, 0x00, 0x00, 0x00, 0x00, 0x00, 0x00, 0x00, 0x00,
    0x00, 0x00, 0x00, 0x00, 0x00, 0x00, 0x00, 0x00, 0x00, 0x00, 0x00, 0x00,
    0x00, 0x00, 0x00, 0x00, 0x00, 0x00, 0x00, 0x00, 0x00, 0x00, 0x00, 0x00,
    0x00, 0x00, 0x00, 0x00, 0x00, 0x00, 0x00, 0x00, 0x00, 0x00, 0x00, 0x00,
    0x00, 0x00, 0x00, 0x00, 0x00, 0x00, 0x00, 0x00, 0x00, 0x00, 0x00, 0x00,
    0x00, 0x00, 0x00, 0x00, 0x00, 0x00, 0x00, 0x00, 0x20, 0x00, 0x00, 0x00,
    0xe8, 0xc3, 0x2c, 0x3c, 0xf7, 0x97, 0xcd, 0x3b, 0x05, 0x3d, 0x25, 0x3c,
    0x3f, 0xa3, 0xa1, 0x3b, 0x5b, 0xf7, 0x43, 0x3c, 0x4f, 0x60, 0x1f, 0x3c,
    0xeb, 0xf8, 0x79, 0x3c, 0x32, 0xa7, 0xea, 0x3b, 0x77, 0xe3, 0x76, 0x3c,
    0x06, 0x81, 0x95, 0x3c, 0x9b, 0xed, 0x03, 0x3c, 0x7a, 0xd4, 0xc1, 0x3b,
    0xe4, 0x9d, 0x73, 0x3b, 0x4d, 0x16, 0x7d, 0x3b, 0x4a, 0x1e, 0x20, 0x3c,
    0x0f, 0xfb, 0x58, 0x3c, 0x0d, 0x28, 0xe2, 0x3b, 0xd9, 0x85, 0x34, 0x3c,
    0xc6, 0x08, 0x03, 0x3c, 0x0e, 0xbd, 0xd1, 0x3b, 0xe9, 0x0a, 0xde, 0x3b,
    0x1b, 0x4d, 0x94, 0x3c, 0x94, 0x9c, 0x3f, 0x3c, 0x42, 0xa8, 0x94, 0x3c,
    0xc7, 0x2b, 0x91, 0x3b, 0x0a, 0x86, 0x1e, 0x3c, 0xcd, 0x86, 0x88, 0x3b,
    0x54, 0x02, 0xfe, 0x3b, 0xe5, 0x8f, 0x6a, 0x3b, 0x57, 0x2a, 0x8c, 0x3b,
    0xee, 0xa7, 0x49, 0x3c, 0x54, 0xbf, 0x40, 0x3c, 0x93, 0x00, 0x00, 0x00,
    0x73, 0x65, 0x71, 0x75, 0x65, 0x6e, 0x74, 0x69, 0x61, 0x6c, 0x5f, 0x31,
    0x2f, 0x62, 0x61, 0x74, 0x63, 0x68, 0x5f, 0x6e, 0x6f, 0x72, 0x6d, 0x61,
    0x6c, 0x69, 0x7a, 0x61, 0x74, 0x69, 0x6f, 0x6e, 0x5f, 0x33, 0x5f, 0x31,
    0x2f, 0x62, 0x61, 0x74, 0x63, 0x68, 0x6e, 0x6f, 0x72, 0x6d, 0x2f, 0x6d,
    0x75, 0x6c, 0x5f, 0x31, 0x3b, 0x73, 0x65, 0x71, 0x75, 0x65, 0x6e, 0x74,
    0x69, 0x61, 0x6c, 0x5f, 0x31, 0x2f, 0x64, 0x65, 0x70, 0x74, 0x68, 0x77,
    0x69, 0x73, 0x65, 0x5f, 0x63, 0x6f, 0x6e, 0x76, 0x32, 0x64, 0x5f, 0x31,
    0x5f, 0x32, 0x2f, 0x64, 0x65, 0x70, 0x74, 0x68, 0x77, 0x69, 0x73, 0x65,
    0x3b, 0x73, 0x65, 0x71, 0x75, 0x65, 0x6e, 0x74, 0x69, 0x61, 0x6c, 0x5f,
    0x31, 0x2f, 0x62, 0x61, 0x74, 0x63, 0x68, 0x5f, 0x6e, 0x6f, 0x72, 0x6d,
    0x61, 0x6c, 0x69, 0x7a, 0x61, 0x74, 0x69, 0x6f, 0x6e, 0x5f, 0x33, 0x5f,
    0x31, 0x2f, 0x62, 0x61, 0x74, 0x63, 0x68, 0x6e, 0x6f, 0x72, 0x6d, 0x2f,
    0x6d, 0x75, 0x6c, 0x00, 0x04, 0x00, 0x00, 0x00, 0x01, 0x00, 0x00, 0x00,
    0x03, 0x00, 0x00, 0x00, 0x03, 0x00, 0x00, 0x00, 0x20, 0x00, 0x00, 0x00,
    0xb2, 0xf7, 0xff, 0xff, 0x00, 0x00, 0x00, 0x01, 0x14, 0x00, 0x00, 0x00,
    0xa8, 0x01, 0x00, 0x00, 0x07, 0x00, 0x00, 0x00, 0x00, 0x00, 0x00, 0x02,
    0xb8, 0x02, 0x00, 0x00, 0xfc, 0xf6, 0xff, 0xff, 0x08, 0x00, 0x00, 0x00,
    0x0c, 0x01, 0x00, 0x00, 0x20, 0x00, 0x00, 0x00, 0x00, 0x00, 0x00, 0x00,
    0x00, 0x00, 0x00, 0x00, 0x00, 0x00, 0x00, 0x00, 0x00, 0x00, 0x00, 0x00,
    0x00, 0x00, 0x00, 0x00, 0x00, 0x00, 0x00, 0x00, 0x00, 0x00, 0x00, 0x00,
    0x00, 0x00, 0x00, 0x00, 0x00, 0x00, 0x00, 0x00, 0x00, 0x00, 0x00, 0x00,
    0x00, 0x00, 0x00, 0x00, 0x00, 0x00, 0x00, 0x00, 0x00, 0x00, 0x00, 0x00,
    0x00, 0x00, 0x00, 0x00, 0x00, 0x00, 0x00, 0x00, 0x00, 0x00, 0x00, 0x00,
    0x00, 0x00, 0x00, 0x00, 0x00, 0x00, 0x00, 0x00, 0x00, 0x00, 0x00, 0x00,
    0x00, 0x00, 0x00, 0x00, 0x00, 0x00, 0x00, 0x00, 0x00, 0x00, 0x00, 0x00,
    0x00, 0x00, 0x00, 0x00, 0x00, 0x00, 0x00, 0x00, 0x00, 0x00, 0x00, 0x00,
    0x00, 0x00, 0x00, 0x00, 0x00, 0x00, 0x00, 0x00, 0x00, 0x00, 0x00, 0x00,
    0x00, 0x00, 0x00, 0x00, 0x00, 0x00, 0x00, 0x00, 0x00, 0x00, 0x00, 0x00,
    0x00, 0x00, 0x00, 0x00, 0x00, 0x00, 0x00, 0x00, 0x00, 0x00, 0x00, 0x00,
    0x00, 0x00, 0x00, 0x00, 0x00, 0x00, 0x00, 0x00, 0x00, 0x00, 0x00, 0x00,
    0x00, 0x00, 0x00, 0x00, 0x00, 0x00, 0x00, 0x00, 0x00, 0x00, 0x00, 0x00,
    0x00, 0x00, 0x00, 0x00, 0x00, 0x00, 0x00, 0x00, 0x00, 0x00, 0x00, 0x00,
    0x00, 0x00, 0x00, 0x00, 0x00, 0x00, 0x00, 0x00, 0x00, 0x00, 0x00, 0x00,
    0x00, 0x00, 0x00, 0x00, 0x00, 0x00, 0x00, 0x00, 0x00, 0x00, 0x00, 0x00,
    0x00, 0x00, 0x00, 0x00, 0x00, 0x00, 0x00, 0x00, 0x00, 0x00, 0x00, 0x00,
    0x00, 0x00, 0x00, 0x00, 0x00, 0x00, 0x00, 0x00, 0x00, 0x00, 0x00, 0x00,
    0x00, 0x00, 0x00, 0x00, 0x00, 0x00, 0x00, 0x00, 0x00, 0x00, 0x00, 0x00,
    0x00, 0x00, 0x00, 0x00, 0x00, 0x00, 0x00, 0x00, 0x00, 0x00, 0x00, 0x00,
    0x00, 0x00, 0x00, 0x00, 0x00, 0x00, 0x00, 0x00, 0x00, 0x00, 0x00, 0x00,
    0x00, 0x00, 0x00, 0x00, 0x20, 0x00, 0x00, 0x00, 0x2a, 0x2b, 0xe3, 0x39,
    0xd2, 0x2a, 0x87, 0x39, 0x82, 0x45, 0xd9, 0x39, 0x78, 0x89, 0x54, 0x39,
    0x77, 0xd6, 0x00, 0x3a, 0x3a, 0x90, 0xd1, 0x39, 0x11, 0x58, 0x24, 0x3a,
    0xbc, 0x45, 0x9a, 0x39, 0x0a, 0x51, 0x22, 0x3a, 0x1b, 0x95, 0x44, 0x3a,
    0xd5, 0x78, 0xad, 0x39, 0xd8, 0xdd, 0x7e, 0x39, 0x61, 0x2a, 0x20, 0x39,
    0x4e, 0x64, 0x26, 0x39, 0x08, 0x8a, 0xd2, 0x39, 0x58, 0xa7, 0x0e, 0x3a,
    0xb0, 0xaf, 0x94, 0x39, 0x79, 0x5e, 0xed, 0x39, 0xf1, 0x4b, 0xac, 0x39,
    0x6f, 0xe4, 0x89, 0x39, 0x4d, 0xfb, 0x91, 0x39, 0x39, 0x00, 0x43, 0x3a,
    0x1d, 0xf3, 0xfb, 0x39, 0x14, 0x78, 0x43, 0x3a, 0x8f, 0xe2, 0x3e, 0x39,
    0x39, 0x71, 0xd0, 0x39, 0xb9, 0x84, 0x33, 0x39, 0x7b, 0xff, 0xa6, 0x39,
    0x6a, 0x36, 0x1a, 0x39, 0x9a, 0x4d, 0x38, 0x39, 0x17, 0x94, 0x04, 0x3a,
    0x6c, 0x71, 0xfd, 0x39, 0x17, 0x01, 0x00, 0x00, 0x73, 0x65, 0x71, 0x75,
    0x65, 0x6e, 0x74, 0x69, 0x61, 0x6c, 0x5f, 0x31, 0x2f, 0x72, 0x65, 0x5f,
    0x6c, 0x75, 0x5f, 0x33, 0x5f, 0x31, 0x2f, 0x52, 0x65, 0x6c, 0x75, 0x3b,
    0x73, 0x65, 0x71, 0x75, 0x65, 0x6e, 0x74, 0x69, 0x61, 0x6c, 0x5f, 0x31,
    0x2f, 0x62, 0x61, 0x74, 0x63, 0x68, 0x5f, 0x6e, 0x6f, 0x72, 0x6d, 0x61,
    0x6c, 0x69, 0x7a, 0x61, 0x74, 0x69, 0x6f, 0x6e, 0x5f, 0x33, 0x5f, 0x31,
    0x2f, 0x62, 0x61, 0x74, 0x63, 0x68, 0x6e, 0x6f, 0x72, 0x6d, 0x2f, 0x61,
    0x64, 0x64, 0x5f, 0x31, 0x3b, 0x73, 0x65, 0x71, 0x75, 0x65, 0x6e, 0x74,
    0x69, 0x61, 0x6c, 0x5f, 0x31, 0x2f, 0x62, 0x61, 0x74, 0x63, 0x68, 0x5f,
    0x6e, 0x6f, 0x72, 0x6d, 0x61, 0x6c, 0x69, 0x7a, 0x61, 0x74, 0x69, 0x6f,
    0x6e, 0x5f, 0x33, 0x5f, 0x31, 0x2f, 0x62, 0x61, 0x74, 0x63, 0x68, 0x6e,
    0x6f, 0x72, 0x6d, 0x2f, 0x6d, 0x75, 0x6c, 0x5f, 0x31, 0x3b, 0x73, 0x65,
    0x71, 0x75, 0x65, 0x6e, 0x74, 0x69, 0x61, 0x6c, 0x5f, 0x31, 0x2f, 0x64,
    0x65, 0x70, 0x74, 0x68, 0x77, 0x69, 0x73, 0x65, 0x5f, 0x63, 0x6f, 0x6e,
    0x76, 0x32, 0x64, 0x5f, 0x31, 0x5f, 0x32, 0x2f, 0x64, 0x65, 0x70, 0x74,
    0x68, 0x77, 0x69, 0x73, 0x65, 0x3b, 0x73, 0x65, 0x71, 0x75, 0x65, 0x6e,
    0x74, 0x69, 0x61, 0x6c, 0x5f, 0x31, 0x2f, 0x62, 0x61, 0x74, 0x63, 0x68,
    0x5f, 0x6e, 0x6f, 0x72, 0x6d, 0x61, 0x6c, 0x69, 0x7a, 0x61, 0x74, 0x69,
    0x6f, 0x6e, 0x5f, 0x33, 0x5f, 0x31, 0x2f, 0x62, 0x61, 0x74, 0x63, 0x68,
    0x6e, 0x6f, 0x72, 0x6d, 0x2f, 0x6d, 0x75, 0x6c, 0x3b, 0x73, 0x65, 0x71,
    0x75, 0x65, 0x6e, 0x74, 0x69, 0x61, 0x6c, 0x5f, 0x31, 0x2f, 0x62, 0x61,
    0x74, 0x63, 0x68, 0x5f, 0x6e, 0x6f, 0x72, 0x6d, 0x61, 0x6c, 0x69, 0x7a,
    0x61, 0x74, 0x69, 0x6f, 0x6e, 0x5f, 0x33, 0x5f, 0x31, 0x2f, 0x62, 0x61,
    0x74, 0x63, 0x68, 0x6e, 0x6f, 0x72, 0x6d, 0x2f, 0x73, 0x75, 0x62, 0x00,
    0x01, 0x00, 0x00, 0x00, 0x20, 0x00, 0x00, 0x00, 0x8a, 0xfa, 0xff, 0xff,
    0x00, 0x00, 0x00, 0x01, 0x14, 0x00, 0x00, 0x00, 0xa8, 0x01, 0x00, 0x00,
    0x06, 0x00, 0x00, 0x00, 0x00, 0x00, 0x00, 0x09, 0xc4, 0x01, 0x00, 0x00,
    0xd4, 0xf9, 0xff, 0xff, 0x08, 0x00, 0x00, 0x00, 0x0c, 0x01, 0x00, 0x00,
    0x20, 0x00, 0x00, 0x00, 0x00, 0x00, 0x00, 0x00, 0x00, 0x00, 0x00, 0x00,
    0x00, 0x00, 0x00, 0x00, 0x00, 0x00, 0x00, 0x00, 0x00, 0x00, 0x00, 0x00,
    0x00, 0x00, 0x00, 0x00, 0x00, 0x00, 0x00, 0x00, 0x00, 0x00, 0x00, 0x00,
    0x00, 0x00, 0x00, 0x00, 0x00, 0x00, 0x00, 0x00, 0x00, 0x00, 0x00, 0x00,
    0x00, 0x00, 0x00, 0x00, 0x00, 0x00, 0x00, 0x00, 0x00, 0x00, 0x00, 0x00,
    0x00, 0x00, 0x00, 0x00, 0x00, 0x00, 0x00, 0x00, 0x00, 0x00, 0x00, 0x00,
    0x00, 0x00, 0x00, 0x00, 0x00, 0x00, 0x00, 0x00, 0x00, 0x00, 0x00, 0x00,
    0x00, 0x00, 0x00, 0x00, 0x00, 0x00, 0x00, 0x00, 0x00, 0x00, 0x00, 0x00,
    0x00, 0x00, 0x00, 0x00, 0x00, 0x00, 0x00, 0x00, 0x00, 0x00, 0x00, 0x00,
    0x00, 0x00, 0x00, 0x00, 0x00, 0x00, 0x00, 0x00, 0x00, 0x00, 0x00, 0x00,
    0x00, 0x00, 0x00, 0x00, 0x00, 0x00, 0x00, 0x00, 0x00, 0x00, 0x00, 0x00,
    0x00, 0x00, 0x00, 0x00, 0x00, 0x00, 0x00, 0x00, 0x00, 0x00, 0x00, 0x00,
    0x00, 0x00, 0x00, 0x00, 0x00, 0x00, 0x00, 0x00, 0x00, 0x00, 0x00, 0x00,
    0x00, 0x00, 0x00, 0x00, 0x00, 0x00, 0x00, 0x00, 0x00, 0x00, 0x00, 0x00,
    0x00, 0x00, 0x00, 0x00, 0x00, 0x00, 0x00, 0x00, 0x00, 0x00, 0x00, 0x00,
    0x00, 0x00, 0x00, 0x00, 0x00, 0x00, 0x00, 0x00, 0x00, 0x00, 0x00, 0x00,
    0x00, 0x00, 0x00, 0x00, 0x00, 0x00, 0x00, 0x00, 0x00, 0x00, 0x00, 0x00,
    0x00, 0x00, 0x00, 0x00, 0x00, 0x00, 0x00, 0x00, 0x00, 0x00, 0x00, 0x00,
    0x00, 0x00, 0x00, 0x00, 0x00, 0x00, 0x00, 0x00, 0x00, 0x00, 0x00, 0x00,
    0x00, 0x00, 0x00, 0x00, 0x00, 0x00, 0x00, 0x00, 0x00, 0x00, 0x00, 0x00,
    0x00, 0x00, 0x00, 0x00, 0x00, 0x00, 0x00, 0x00, 0x00, 0x00, 0x00, 0x00,
    0x00, 0x00, 0x00, 0x00, 0x00, 0x00, 0x00, 0x00, 0x00, 0x00, 0x00, 0x00,
    0x20, 0x00, 0x00, 0x00, 0xdb, 0x53, 0x8f, 0x3c, 0xe5, 0x5e, 0x98, 0x3c,
    0xa4, 0xd5, 0xc0, 0x3c, 0xd1, 0xef, 0x96, 0x3c, 0xfa, 0x30, 0x05, 0x3d,
    0x3a, 0x3e, 0xc6, 0x3c, 0xb0, 0xbe, 0x34, 0x3c, 0x3d, 0x08, 0xc3, 0x3c,
    0x6e, 0x14, 0x01, 0x3d, 0xb6, 0xf5, 0x8a, 0x3c, 0x2c, 0x45, 0xac, 0x3c,
    0xd0, 0x21, 0xd1, 0x3c, 0xe0, 0x0e, 0x2c, 0x3c, 0x2d, 0xca, 0x9e, 0x3c,
    0x7c, 0x3e, 0x1f, 0x3c, 0x89, 0x76, 0xad, 0x3c, 0x65, 0x7d, 0xba, 0x3c,
    0x8a, 0x52, 0x46, 0x3c, 0x3b, 0xa1, 0x4c, 0x3c, 0xfe, 0x6c, 0x4a, 0x3c,
    0x48, 0xd1, 0x15, 0x3d, 0xcc, 0x41, 0x8c, 0x3c, 0x52, 0x96, 0xa1, 0x3c,
    0xb3, 0x9a, 0x9a, 0x3c, 0xf1, 0xe7, 0x99, 0x3c, 0x28, 0xc7, 0xba, 0x3c,
    0x66, 0xb5, 0x3a, 0x3c, 0xa3, 0x8a, 0x59, 0x3c, 0xd0, 0xa7, 0xce, 0x3c,
    0x12, 0xcf, 0x0a, 0x3d, 0x77, 0xbe, 0x90, 0x3c, 0xf9, 0xec, 0x73, 0x3c,
    0x23, 0x00, 0x00, 0x00, 0x73, 0x65, 0x71, 0x75, 0x65, 0x6e, 0x74, 0x69,
    0x61, 0x6c, 0x5f, 0x31, 0x2f, 0x63, 0x6f, 0x6e, 0x76, 0x32, 0x64, 0x5f,
    0x32, 0x5f, 0x31, 0x2f, 0x63, 0x6f, 0x6e, 0x76, 0x6f, 0x6c, 0x75, 0x74,
    0x69, 0x6f, 0x6e, 0x00, 0x04, 0x00, 0x00, 0x00, 0x20, 0x00, 0x00, 0x00,
    0x01, 0x00, 0x00, 0x00, 0x01, 0x00, 0x00, 0x00, 0x20, 0x00, 0x00, 0x00,
    0x7a, 0xfc, 0xff, 0xff, 0x00, 0x00, 0x00, 0x01, 0x14, 0x00, 0x00, 0x00,
    0xa8, 0x01, 0x00, 0x00, 0x05, 0x00, 0x00, 0x00, 0x00, 0x00, 0x00, 0x02,
    0x48, 0x02, 0x00, 0x00, 0xc4, 0xfb, 0xff, 0xff, 0x08, 0x00, 0x00, 0x00,
    0x0c, 0x01, 0x00, 0x00, 0x20, 0x00, 0x00, 0x00, 0x00, 0x00, 0x00, 0x00,
    0x00, 0x00, 0x00, 0x00, 0x00, 0x00, 0x00, 0x00, 0x00, 0x00, 0x00, 0x00,
    0x00, 0x00, 0x00, 0x00, 0x00, 0x00, 0x00, 0x00, 0x00, 0x00, 0x00, 0x00,
    0x00, 0x00, 0x00, 0x00, 0x00, 0x00, 0x00, 0x00, 0x00, 0x00, 0x00, 0x00,
    0x00, 0x00, 0x00, 0x00, 0x00, 0x00, 0x00, 0x00, 0x00, 0x00, 0x00, 0x00,
    0x00, 0x00, 0x00, 0x00, 0x00, 0x00, 0x00, 0x00, 0x00, 0x00, 0x00, 0x00,
    0x00, 0x00, 0x00, 0x00, 0x00, 0x00, 0x00, 0x00, 0x00, 0x00, 0x00, 0x00,
    0x00, 0x00, 0x00, 0x00, 0x00, 0x00, 0x00, 0x00, 0x00, 0x00, 0x00, 0x00,
    0x00, 0x00, 0x00, 0x00, 0x00, 0x00, 0x00, 0x00, 0x00, 0x00, 0x00, 0x00,
    0x00, 0x00, 0x00, 0x00, 0x00, 0x00, 0x00, 0x00, 0x00, 0x00, 0x00, 0x00,
    0x00, 0x00, 0x00, 0x00, 0x00, 0x00, 0x00, 0x00, 0x00, 0x00, 0x00, 0x00,
    0x00, 0x00, 0x00, 0x00, 0x00, 0x00, 0x00, 0x00, 0x00, 0x00, 0x00, 0x00,
    0x00, 0x00, 0x00, 0x00, 0x00, 0x00, 0x00, 0x00, 0x00, 0x00, 0x00, 0x00,
    0x00, 0x00, 0x00, 0x00, 0x00, 0x00, 0x00, 0x00, 0x00, 0x00, 0x00, 0x00,
    0x00, 0x00, 0x00, 0x00, 0x00, 0x00, 0x00, 0x00, 0x00, 0x00, 0x00, 0x00,
    0x00, 0x00, 0x00, 0x00, 0x00, 0x00, 0x00, 0x00, 0x00, 0x00, 0x00, 0x00,
    0x00, 0x00, 0x00, 0x00, 0x00, 0x00, 0x00, 0x00, 0x00, 0x00, 0x00, 0x00,
    0x00, 0x00, 0x00, 0x00, 0x00, 0x00, 0x00, 0x00, 0x00, 0x00, 0x00, 0x00,
    0x00, 0x00, 0x00, 0x00, 0x00, 0x00, 0x00, 0x00, 0x00, 0x00, 0x00, 0x00,
    0x00, 0x00, 0x00, 0x00, 0x00, 0x00, 0x00, 0x00, 0x00, 0x00, 0x00, 0x00,
    0x00, 0x00, 0x00, 0x00, 0x00, 0x00, 0x00, 0x00, 0x00, 0x00, 0x00, 0x00,
    0x00, 0x00, 0x00, 0x00, 0x00, 0x00, 0x00, 0x00, 0x00, 0x00, 0x00, 0x00,
    0x00, 0x00, 0x00, 0x00, 0x20, 0x00, 0x00, 0x00, 0x01, 0x61, 0x8f, 0x3a,
    0xdf, 0x6c, 0x98, 0x3a, 0x55, 0xe7, 0xc0, 0x3a, 0xaa, 0xfd, 0x96, 0x3a,
    0x32, 0x3d, 0x05, 0x3b, 0x6a, 0x50, 0xc6, 0x3a, 0x45, 0xcf, 0x34, 0x3a,
    0x21, 0x1a, 0xc3, 0x3a, 0x45, 0x20, 0x01, 0x3b, 0x75, 0x02, 0x8b, 0x3a,
    0xfa, 0x54, 0xac, 0x3a, 0xff, 0x34, 0xd1, 0x3a, 0xa9, 0x1e, 0x2c, 0x3a,
    0xbe, 0xd8, 0x9e, 0x3a, 0x18, 0x4d, 0x1f, 0x3a, 0x73, 0x86, 0xad, 0x3a,
    0x81, 0x8e, 0xba, 0x3a, 0xbb, 0x64, 0x46, 0x3a, 0x01, 0xb4, 0x4c, 0x3a,
    0x90, 0x7f, 0x4a, 0x3a, 0x06, 0xdf, 0x15, 0x3b, 0xaa, 0x4e, 0x8c, 0x3a,
    0x25, 0xa5, 0xa1, 0x3a, 0xe2, 0xa8, 0x9a, 0x3a, 0x0f, 0xf6, 0x99, 0x3a,
    0x4a, 0xd8, 0xba, 0x3a, 0x87, 0xc6, 0x3a, 0x3a, 0x98, 0x9e, 0x59, 0x3a,
    0xc5, 0xba, 0xce, 0x3a, 0xce, 0xdb, 0x0a, 0x3b, 0xbe, 0xcb, 0x90, 0x3a,
    0x59, 0x03, 0x74, 0x3a, 0xa7, 0x00, 0x00, 0x00, 0x73, 0x65, 0x71, 0x75,
    0x65, 0x6e, 0x74, 0x69, 0x61, 0x6c, 0x5f, 0x31, 0x2f, 0x72, 0x65, 0x5f,
    0x6c, 0x75, 0x5f, 0x34, 0x5f, 0x31, 0x2f, 0x52, 0x65, 0x6c, 0x75, 0x3b,
    0x73, 0x65, 0x71, 0x75, 0x65, 0x6e, 0x74, 0x69, 0x61, 0x6c, 0x5f, 0x31,
    0x2f, 0x62, 0x61, 0x74, 0x63, 0x68, 0x5f, 0x6e, 0x6f, 0x72, 0x6d, 0x61,
    0x6c, 0x69, 0x7a, 0x61, 0x74, 0x69, 0x6f, 0x6e, 0x5f, 0x34, 0x5f, 0x31,
    0x2f, 0x62, 0x61, 0x74, 0x63, 0x68, 0x6e, 0x6f, 0x72, 0x6d, 0x2f, 0x61,
    0x64, 0x64, 0x5f, 0x31, 0x3b, 0x73, 0x65, 0x71, 0x75, 0x65, 0x6e, 0x74,
    0x69, 0x61, 0x6c, 0x5f, 0x31, 0x2f, 0x63, 0x6f, 0x6e, 0x76, 0x32, 0x64,
    0x5f, 0x32, 0x5f, 0x31, 0x2f, 0x63, 0x6f, 0x6e, 0x76, 0x6f, 0x6c, 0x75,
    0x74, 0x69, 0x6f, 0x6e, 0x3b, 0x73, 0x65, 0x71, 0x75, 0x65, 0x6e, 0x74,
    0x69, 0x61, 0x6c, 0x5f, 0x31, 0x2f, 0x62, 0x61, 0x74, 0x63, 0x68, 0x5f,
    0x6e, 0x6f, 0x72, 0x6d, 0x61, 0x6c, 0x69, 0x7a, 0x61, 0x74, 0x69, 0x6f,
    0x6e, 0x5f, 0x34, 0x5f, 0x31, 0x2f, 0x62, 0x61, 0x74, 0x63, 0x68, 0x6e,
    0x6f, 0x72, 0x6d, 0x2f, 0x73, 0x75, 0x62, 0x00, 0x01, 0x00, 0x00, 0x00,
    0x20, 0x00, 0x00, 0x00, 0xe2, 0xfe, 0xff, 0xff, 0x00, 0x00, 0x00, 0x01,
    0x14, 0x00, 0x00, 0x00, 0x58, 0x00, 0x00, 0x00, 0x04, 0x00, 0x00, 0x00,
    0x00, 0x00, 0x00, 0x09, 0x6c, 0x00, 0x00, 0x00, 0x2c, 0xfe, 0xff, 0xff,
    0x08, 0x00, 0x00, 0x00, 0x2c, 0x00, 0x00, 0x00, 0x04, 0x00, 0x00, 0x00,
    0x00, 0x00, 0x00, 0x00, 0x00, 0x00, 0x00, 0x00, 0x00, 0x00, 0x00, 0x00,
    0x00, 0x00, 0x00, 0x00, 0x00, 0x00, 0x00, 0x00, 0x00, 0x00, 0x00, 0x00,
    0x00, 0x00, 0x00, 0x00, 0x00, 0x00, 0x00, 0x00, 0x00, 0x00, 0x00, 0x00,
    0x04, 0x00, 0x00, 0x00, 0x0f, 0x70, 0x7a, 0x3c, 0xab, 0xc3, 0x87, 0x3c,
    0x69, 0x74, 0x08, 0x3c, 0x2f, 0x64, 0x47, 0x3c, 0x1b, 0x00, 0x00, 0x00,
    0x73, 0x65, 0x71, 0x75, 0x65, 0x6e, 0x74, 0x69, 0x61, 0x6c, 0x5f, 0x31,
    0x2f, 0x64, 0x65, 0x6e, 0x73, 0x65, 0x5f, 0x31, 0x2f, 0x4d, 0x61, 0x74,
    0x4d, 0x75, 0x6c, 0x00, 0x02, 0x00, 0x00, 0x00, 0x04, 0x00, 0x00, 0x00,
    0x20, 0x00, 0x00, 0x00, 0x72, 0xff, 0xff, 0xff, 0x00, 0x00, 0x00, 0x01,
    0x14, 0x00, 0x00, 0x00, 0x54, 0x00, 0x00, 0x00, 0x03, 0x00, 0x00, 0x00,
    0x00, 0x00, 0x00, 0x02, 0x6c, 0x00, 0x00, 0x00, 0xbc, 0xfe, 0xff, 0xff,
    0x08, 0x00, 0x00, 0x00, 0x28, 0x00, 0x00, 0x00, 0x04, 0x00, 0x00, 0x00,
    0x00, 0x00, 0x00, 0x00, 0x00, 0x00, 0x00, 0x00, 0x00, 0x00, 0x00, 0x00,
    0x00, 0x00, 0x00, 0x00, 0x00, 0x00, 0x00, 0x00, 0x00, 0x00, 0x00, 0x00,
    0x00, 0x00, 0x00, 0x00, 0x00, 0x00, 0x00, 0x00, 0x04, 0x00, 0x00, 0x00,
    0x58, 0xae, 0x93, 0x39, 0x41, 0x1e, 0xa0, 0x39, 0xb3, 0xee, 0x20, 0x39,
    0xa8, 0x28, 0x6b, 0x39, 0x1c, 0x00, 0x00, 0x00, 0x73, 0x65, 0x71, 0x75,
    0x65, 0x6e, 0x74, 0x69, 0x61, 0x6c, 0x5f, 0x31, 0x2f, 0x64, 0x65, 0x6e,
    0x73, 0x65, 0x5f, 0x31, 0x2f, 0x42, 0x69, 0x61, 0x73, 0x41, 0x64, 0x64,
    0x00, 0x00, 0x00, 0x00, 0x01, 0x00, 0x00, 0x00, 0x04, 0x00, 0x00, 0x00,
    0x00, 0x00, 0x16, 0x00, 0x1c, 0x00, 0x18, 0x00, 0x17, 0x00, 0x10, 0x00,
    0x0c, 0x00, 0x08, 0x00, 0x00, 0x00, 0x00, 0x00, 0x00, 0x00, 0x07, 0x00,
    0x16, 0x00, 0x00, 0x00, 0x00, 0x00, 0x00, 0x01, 0x18, 0x00, 0x00, 0x00,
    0x18, 0x00, 0x00, 0x00, 0x02, 0x00, 0x00, 0x00, 0x00, 0x00, 0x00, 0x02,
    0x50, 0x00, 0x00, 0x00, 0x04, 0x00, 0x04, 0x00, 0x04, 0x00, 0x00, 0x00,
    0x3e, 0x00, 0x00, 0x00, 0x73, 0x65, 0x71, 0x75, 0x65, 0x6e, 0x74, 0x69,
    0x61, 0x6c, 0x5f, 0x31, 0x2f, 0x67, 0x6c, 0x6f, 0x62, 0x61, 0x6c, 0x5f,
    0x61, 0x76, 0x65, 0x72, 0x61, 0x67, 0x65, 0x5f, 0x70, 0x6f, 0x6f, 0x6c,
    0x69, 0x6e, 0x67, 0x32, 0x64, 0x5f, 0x31, 0x2f, 0x4d, 0x65, 0x61, 0x6e,
    0x2f, 0x72, 0x65, 0x64, 0x75, 0x63, 0x74, 0x69, 0x6f, 0x6e, 0x5f, 0x69,
    0x6e, 0x64, 0x69, 0x63, 0x65, 0x73, 0x00, 0x00, 0x01, 0x00, 0x00, 0x00,
    0x02, 0x00, 0x00, 0x00, 0x00, 0x00, 0x16, 0x00, 0x20, 0x00, 0x1c, 0x00,
    0x1b, 0x00, 0x14, 0x00, 0x10, 0x00, 0x0c, 0x00, 0x00, 0x00, 0x00, 0x00,
    0x08, 0x00, 0x07, 0x00, 0x16, 0x00, 0x00, 0x00, 0x00, 0x00, 0x00, 0x01,
    0x18, 0x00, 0x00, 0x00, 0x34, 0x00, 0x00, 0x00, 0x54, 0x00, 0x00, 0x00,
    0x01, 0x00, 0x00, 0x00, 0x00, 0x00, 0x00, 0x09, 0x6c, 0x00, 0x00, 0x00,
    0x04, 0x00, 0x00, 0x00, 0xff, 0xff, 0xff, 0xff, 0x40, 0x00, 0x00, 0x00,
    0x40, 0x00, 0x00, 0x00, 0x01, 0x00, 0x00, 0x00, 0x0c, 0x00, 0x0c, 0x00,
    0x00, 0x00, 0x00, 0x00, 0x08, 0x00, 0x04, 0x00, 0x0c, 0x00, 0x00, 0x00,
    0x08, 0x00, 0x00, 0x00, 0x14, 0x00, 0x00, 0x00, 0x01, 0x00, 0x00, 0x00,
    0x80, 0xff, 0xff, 0xff, 0xff, 0xff, 0xff, 0xff, 0x00, 0x00, 0x00, 0x00,
    0x01, 0x00, 0x00, 0x00, 0x81, 0x80, 0x80, 0x3b, 0x1d, 0x00, 0x00, 0x00,
    0x73, 0x65, 0x72, 0x76, 0x69, 0x6e, 0x67, 0x5f, 0x64, 0x65, 0x66, 0x61,
    0x75, 0x6c, 0x74, 0x5f, 0x69, 0x6e, 0x70, 0x75, 0x74, 0x5f, 0x6c, 0x61,
    0x79, 0x65, 0x72, 0x3a, 0x30, 0x00, 0x00, 0x00, 0x04, 0x00, 0x00, 0x00,
    0x01, 0x00, 0x00, 0x00, 0x40, 0x00, 0x00, 0x00, 0x40, 0x00, 0x00, 0x00,
    0x01, 0x00, 0x00, 0x00, 0x05, 0x00, 0x00, 0x00, 0x60, 0x00, 0x00, 0x00,
    0x40, 0x00, 0x00, 0x00, 0x2c, 0x00, 0x00, 0x00, 0x18, 0x00, 0x00, 0x00,
    0x04, 0x00, 0x00, 0x00, 0xc0, 0xff, 0xff, 0xff, 0x19, 0x00, 0x00, 0x00,
    0x02, 0x00, 0x00, 0x00, 0x00, 0x00, 0x00, 0x19, 0xd0, 0xff, 0xff, 0xff,
    0x09, 0x00, 0x00, 0x00, 0x04, 0x00, 0x00, 0x00, 0x00, 0x00, 0x00, 0x09,
    0xe0, 0xff, 0xff, 0xff, 0x28, 0x00, 0x00, 0x00, 0x02, 0x00, 0x00, 0x00,
    0x00, 0x00, 0x00, 0x28, 0xf0, 0xff, 0xff, 0xff, 0x04, 0x00, 0x00, 0x00,
    0x03, 0x00, 0x00, 0x00, 0x00, 0x00, 0x00, 0x04, 0x0c, 0x00, 0x10, 0x00,
    0x0f, 0x00, 0x00, 0x00, 0x08, 0x00, 0x04, 0x00, 0x0c, 0x00, 0x00, 0x00,
    0x03, 0x00, 0x00, 0x00, 0x03, 0x00, 0x00, 0x00, 0x00, 0x00, 0x00, 0x03
};

#ifdef __cplusplus
}
#endif

#endif // TRANSIENT_MODEL_DATA_H
